<pad>	0
<unk>	0
<s>	0
</s>	0
<cls>	0
▁t	-0
in	-1
er	-2
▁a	-3
on	-4
he	-5
es	-6
▁s	-7
or	-8
an	-9
▁the	-10
ed	-11
en	-12
ar	-13
it	-14
at	-15
▁f	-16
▁o	-17
▁c	-18
ing	-19
al	-20
▁w	-21
re	-22
▁p	-23
▁to	-24
▁b	-25
is	-26
▁in	-27
ic	-28
▁S	-29
ro	-30
as	-31
▁of	-32
▁m	-33
ay	-34
il	-35
nd	-36
▁A	-37
▁h	-38
ion	-39
ter	-40
▁d	-41
le	-42
▁T	-43
▁C	-44
ou	-45
id	-46
▁M	-47
om	-48
st	-49
ent	-50
▁and	-51
▁I	-52
▁on	-53
▁B	-54
▁P	-55
et	-56
ac	-57
el	-58
ur	-59
▁th	-60
ec	-61
ad	-62
▁for	-63
▁n	-64
▁l	-65
ig	-66
ol	-67
am	-68
ot	-69
ir	-70
▁re	-71
▁g	-72
ut	-73
▁W	-74
▁N	-75
▁F	-76
▁R	-77
▁e	-78
▁-	-79
ers	-80
▁#	-81
day	-82
us	-83
▁#3	-84
9;	-85
▁#39;	-86
ve	-87
ill	-88
▁U	-89
▁D	-90
▁st	-91
▁r	-92
ow	-93
▁(	-94
est	-95
▁it	-96
▁G	-97
im	-98
th	-99
▁H	-100
ver	-101
ra	-102
▁E	-103
▁L	-104
ation	-105
un	-106
▁O	-107
ly	-108
qu	-109
ch	-110
ts	-111
up	-112
ith	-113
ew	-114
ear	-115
▁an	-116
▁at	-117
os	-118
ak	-119
ce	-120
igh	-121
▁be	-122
ul	-123
▁as	-124
and	-125
▁that	-126
▁with	-127
ag	-128
ri	-129
▁The	-130
em	-131
ld	-132
ters	-133
op	-134
ess	-135
▁J	-136
▁com	-137
▁pro	-138
ain	-139
▁1	-140
▁In	-141
▁is	-142
▁y	-143
oc	-144
▁sa	-145
ks	-146
▁con	-147
▁its	-148
ct	-149
▁2	-150
all	-151
ian	-152
ap	-153
▁St	-154
▁he	-155
00	-156
▁v	-157
▁de	-158
ate	-159
uters	-160
ast	-161
▁said	-162
um	-163
▁by	-164
▁K	-165
ft	-166
ies	-167
ore	-168
ost	-169
end	-170
ia	-171
our	-172
▁has	-173
por	-174
rom	-175
▁le	-176
ee	-177
▁sh	-178
▁qu	-179
▁wh	-180
▁ex	-181
ight	-182
▁pl	-183
ust	-184
▁ch	-185
euters	-186
oo	-187
ack	-188
▁comp	-189
und	-190
▁from	-191
ist	-192
ment	-193
iv	-194
ity	-195
ard	-196
▁Ch	-197
art	-198
▁ag	-199
ial	-200
pp	-201
if	-202
▁pr	-203
oun	-204
▁off	-205
..	-206
fter	-207
esday	-208
ine	-209
ug	-210
▁his	-211
ive	-212
ud	-213
▁Th	-214
ell	-215
▁was	-216
▁will	-217
▁k	-218
▁Y	-219
ted	-220
ave	-221
▁al	-222
ry	-223
ab	-224
gt	-225
lt	-226
▁new	-227
▁V	-228
▁US	-229
▁sp	-230
ice	-231
ob	-232
ord	-233
▁after	-234
ip	-235
oft	-236
Reuters	-237
mer	-238
▁over	-239
ere	-240
▁j	-241
▁fir	-242
▁se	-243
▁Fr	-244
ff	-245
▁wor	-246
ions	-247
ould	-248
arg	-249
ace	-250
se	-251
are	-252
ans	-253
ie	-254
ub	-255
ong	-256
▁up	-257
\$	-258
▁cl	-259
ays	-260
ning	-261
▁have	-262
old	-263
ick	-264
any	-265
▁year	-266
uc	-267
tern	-268
out	-269
wo	-270
▁are	-271
▁their	-272
ue	-273
▁out	-274
ame	-275
ge	-276
▁Pr	-277
▁\$	-278
▁ac	-279
▁quot	-280
illion	-281
▁ro	-282
ail	-283
ome	-284
▁un	-285
ke	-286
ant	-287
▁sec	-288
ign	-289
over	-290
ide	-291
ident	-292
ree	-293
ros	-294
ile	-295
ark	-296
AP	-297
ex	-298
ime	-299
od	-300
raq	-301
ire	-302
▁exp	-303
ond	-304
▁New	-305
▁Iraq	-306
▁ab	-307
▁int	-308
ep	-309
▁Un	-310
ors	-311
og	-312
▁first	-313
ake	-314
▁Mon	-315
ens	-316
av	-317
own	-318
ish	-319
▁res	-320
ass	-321
▁two	-322
ich	-323
age	-324
amp	-325
ices	-326
ase	-327
urs	-328
eek	-329
ations	-330
▁200	-331
one	-332
port	-333
ber	-334
ON	-335
▁op	-336
▁--	-337
oll	-338
com	-339
ates	-340
row	-341
ure	-342
▁3	-343
▁AP	-344
▁again	-345
ary	-346
rop	-347
▁per	-348
▁more	-349
ther	-350
hen	-351
ect	-352
iday	-353
▁but	-354
esident	-355
act	-356
ach	-357
▁sc	-358
▁lead	-359
▁cont	-360
▁rec	-361
ets	-362
▁fin	-363
ote	-364
edn	-365
▁Monday	-366
ance	-367
erv	-368
ednesday	-369
...	-370
uesday	-371
hed	-372
▁te	-373
rit	-374
ov	-375
hn	-376
▁Wednesday	-377
▁win	-378
▁Tuesday	-379
ursday	-380
ory	-381
▁en	-382
iz	-383
mp	-384
ank	-385
lect	-386
▁tr	-387
▁Thursday	-388
▁Inc	-389
anc	-390
ite	-391
▁Sh	-392
▁company	-393
▁this	-394
iss	-395
aw	-396
▁not	-397
▁ad	-398
ence	-399
ull	-400
ade	-401
▁dis	-402
▁Mic	-403
▁An	-404
ated	-405
ational	-406
▁Friday	-407
arter	-408
vest	-409
ict	-410
ous	-411
▁Sp	-412
▁Ind	-413
ount	-414
ood	-415
▁one	-416
eop	-417
ited	-418
earch	-419
ash	-420
ock	-421
ork	-422
▁against	-423
ort	-424
▁app	-425
▁Re	-426
;/	-427
OR	-428
▁than	-429
ester	-430
eople	-431
ican	-432
urn	-433
▁Micros	-434
etw	-435
▁Is	-436
▁into	-437
▁us	-438
gh	-439
oin	-440
ason	-441
▁week	-442
ound	-443
▁last	-444
esterday	-445
oy	-446
▁acc	-447
ush	-448
▁Com	-449
orm	-450
▁who	-451
▁yesterday	-452
▁about	-453
▁Cor	-454
ven	-455
▁inc	-456
▁play	-457
▁ar	-458
als	-459
▁cr	-460
▁Microsoft	-461
man	-462
ib	-463
▁were	-464
her	-465
▁Le	-466
roup	-467
land	-468
▁offic	-469
▁they	-470
▁ann	-471
▁Intern	-472
▁all	-473
overn	-474
▁att	-475
ware	-476
oss	-477
▁Al	-478
ina	-479
▁As	-480
▁ear	-481
▁been	-482
▁&	-483
pl	-484
ext	-485
ition	-486
▁or	-487
ocks	-488
▁world	-489
▁im	-490
vel	-491
reat	-492
▁4	-493
ey	-494
ical	-495
▁man	-496
its	-497
yst	-498
▁Pro	-499
▁million	-500
ird	-501
ton	-502
▁high	-503
uct	-504
▁had	-505
ang	-506
eat	-507
▁Amer	-508
▁str	-509
▁mark	-510
ind	-511
▁three	-512
▁kill	-513
▁No	-514
eral	-515
▁Ex	-516
ced	-517
▁Corp	-518
overnment	-519
tle	-520
▁Eu	-521
ral	-522
ower	-523
AN	-524
onth	-525
▁ret	-526
ose	-527
ook	-528
Qu	-529
hes	-530
ise	-531
▁bl	-532
gr	-533
▁6	-534
ased	-535
cent	-536
ilit	-537
uss	-538
▁Sund	-539
ected	-540
line	-541
urity	-542
▁Sunday	-543
▁official	-544
ting	-545
▁United	-546
eb	-547
▁war	-548
AS	-549
▁dec	-550
▁would	-551
ines	-552
▁team	-553
rope	-554
▁back	-555
▁En	-556
az	-557
ix	-558
▁end	-559
▁Sat	-560
▁oil	-561
ating	-562
▁Europe	-563
▁could	-564
able	-565
▁four	-566
▁serv	-567
▁def	-568
▁Ar	-569
olog	-570
▁sl	-571
▁announ	-572
▁fl	-573
ely	-574
ports	-575
ph	-576
▁set	-577
▁Bl	-578
▁government	-579
ugh	-580
▁pol	-581
ics	-582
▁bu	-583
ox	-584
FP	-585
▁second	-586
▁years	-587
iness	-588
▁Con	-589
▁which	-590
▁mak	-591
oftware	-592
▁NE	-593
▁cons	-594
ales	-595
ents	-596
▁today	-597
▁Reuters	-598
usiness	-599
▁sup	-600
▁co	-601
▁people	-602
IN	-603
▁month	-604
ron	-605
▁De	-606
ww	-607
▁plan	-608
inis	-609
▁President	-610
▁It	-611
ows	-612
▁elect	-613
▁ind	-614
ubl	-615
orld	-616
▁Brit	-617
tt	-618
▁des	-619
▁5	-620
air	-621
▁prices	-622
ah	-623
echn	-624
▁percent	-625
ital	-626
ins	-627
▁NEW	-628
▁season	-629
ok	-630
▁down	-631
enc	-632
▁when	-633
ier	-634
▁says	-635
urday	-636
uch	-637
▁sur	-638
▁hel	-639
▁quarter	-640
▁me	-641
▁part	-642
▁next	-643
hip	-644
les	-645
▁go	-646
▁time	-647
▁Saturday	-648
ystem	-649
ally	-650
▁pre	-651
▁night	-652
▁For	-653
pr	-654
▁Co	-655
ement	-656
atch	-657
ings	-658
▁7	-659
▁work	-660
▁game	-661
▁reg	-662
▁Mar	-663
▁count	-664
▁invest	-665
apan	-666
▁Aust	-667
▁ph	-668
▁third	-669
▁li	-670
ball	-671
ief	-672
▁Japan	-673
▁China	-674
ecut	-675
ists	-676
aj	-677
aun	-678
▁On	-679
ild	-680
▁Af	-681
▁prod	-682
▁bec	-683
inister	-684
fit	-685
ged	-686
onom	-687
ORK	-688
▁World	-689
▁YORK	-690
▁Pl	-691
uring	-692
▁market	-693
▁vict	-694
▁record	-695
echnolog	-696
▁cap	-697
under	-698
▁Or	-699
▁software	-700
▁ne	-701
pt	-702
▁may	-703
form	-704
omb	-705
ough	-706
orn	-707
led	-708
err	-709
ied	-710
cess	-711
▁10	-712
▁milit	-713
▁Bush	-714
ove	-715
▁Russ	-716
▁Internet	-717
▁can	-718
ult	-719
ms	-720
ision	-721
▁help	-722
="	-723
rael	-724
▁Air	-725
▁Cl	-726
ames	-727
▁Austral	-728
oot	-729
ran	-730
lear	-731
▁Israel	-732
▁business	-733
▁2004	-734
els	-735
▁Pal	-736
▁car	-737
▁rele	-738
▁open	-739
▁Res	-740
ons	-741
ger	-742
uter	-743
▁announced	-744
ned	-745
less	-746
ourt	-747
▁ec	-748
eld	-749
app	-750
▁agre	-751
ner	-752
use	-753
000	-754
ported	-755
▁conf	-756
▁deal	-757
▁run	-758
▁billion	-759
urr	-760
▁larg	-761
▁group	-762
Quote	-763
▁big	-764
▁some	-765
▁Jo	-766
▁do	-767
ath	-768
ones	-769
ands	-770
▁Sec	-771
outh	-772
▁security	-773
rough	-774
ble	-775
▁top	-776
▁call	-777
ica	-778
istan	-779
▁med	-780
▁Fl	-781
▁take	-782
eep	-783
,000	-784
▁most	-785
year	-786
▁Can	-787
▁so	-788
ious	-789
io	-790
▁president	-791
▁ins	-792
ares	-793
▁say	-794
inu	-795
▁Ph	-796
▁Red	-797
▁targ	-798
een	-799
▁econom	-800
acks	-801
▁tal	-802
▁At	-803
▁start	-804
ces	-805
▁am	-806
RE	-807
ague	-808
ward	-809
echnology	-810
ll	-811
fore	-812
ert	-813
▁inter	-814
▁other	-815
▁grow	-816
▁victory	-817
ince	-818
iam	-819
▁under	-820
▁we	-821
ollar	-822
▁near	-823
▁killed	-824
▁\$1	-825
▁comm	-826
▁tri	-827
▁rem	-828
▁air	-829
gle	-830
▁day	-831
▁sign	-832
ony	-833
aim	-834
▁Op	-835
▁European	-836
▁officials	-837
ajor	-838
ives	-839
co	-840
ield	-841
ures	-842
▁reported	-843
round	-844
ual	-845
▁sales	-846
▁bo	-847
riv	-848
ept	-849
vent	-850
ampions	-851
orth	-852
ER	-853
etwork	-854
▁App	-855
inian	-856
▁offer	-857
ants	-858
lud	-859
lymp	-860
▁Cup	-861
rug	-862
▁laun	-863
▁American	-864
other	-865
▁head	-866
velop	-867
ient	-868
ING	-869
▁Olymp	-870
▁cut	-871
▁Ad	-872
▁oper	-873
▁Oil	-874
▁"	-875
nings	-876
alif	-877
▁country	-878
▁plans	-879
rov	-880
▁Comm	-881
ities	-882
▁Ser	-883
▁prov	-884
▁target	-885
ange	-886
ool	-887
▁just	-888
▁Up	-889
estinian	-890
ling	-891
▁British	-892
▁8	-893
▁get	-894
way	-895
▁19	-896
▁before	-897
BM	-898
ops	-899
▁home	-900
▁dem	-901
▁John	-902
gan	-903
usic	-904
gy	-905
▁ser	-906
▁Palestinian	-907
▁Int	-908
▁law	-909
▁manag	-910
ency	-911
ium	-912
▁show	-913
oogle	-914
usp	-915
▁Minister	-916
▁buy	-917
ck	-918
▁States	-919
-1	-920
gest	-921
ederal	-922
▁imp	-923
▁India	-924
ember	-925
▁Eng	-926
su	-927
▁act	-928
ission	-929
;...	-930
cer	-931
▁York	-932
eal	-933
▁br	-934
;...&	-935
ording	-936
▁report	-937
▁job	-938
▁Sc	-939
▁tak	-940
▁charg	-941
▁no	-942
ax	-943
head	-944
▁Col	-945
▁bro	-946
▁system	-947
▁ass	-948
▁long	-949
▁news	-950
ink	-951
DA	-952
ury	-953
ington	-954
▁Google	-955
enn	-956
▁tra	-957
"&	-958
▁former	-959
▁host	-960
▁Iraqi	-961
▁Tr	-962
wn	-963
icker	-964
AFP	-965
obile	-966
ful	-967
iant	-968
▁kn	-969
TON	-970
reak	-971
▁IBM	-972
thern	-973
▁tro	-974
▁final	-975
▁bid	-976
▁you	-977
anies	-978
▁includ	-979
ech	-980
▁Be	-981
▁su	-982
▁won	-983
med	-984
▁Wh	-985
.,	-986
▁five	-987
▁rel	-988
fo	-989
ump	-990
AR	-991
ik	-992
▁Comp	-993
ese	-994
▁Canad	-995
▁least	-996
ata	-997
ause	-998
▁9	-999
▁Web	-1000
ipp	-1001
▁bank	-1002
ular	-1003
▁technology	-1004
▁made	-1005
▁post	-1006
ending	-1007
ublic	-1008
▁With	-1009
▁make	-1010
etween	-1011
▁him	-1012
▁hit	-1013
▁poin	-1014
▁develop	-1015
ustry	-1016
▁major	-1017
▁bomb	-1018
ense	-1019
▁UN	-1020
▁her	-1021
▁maker	-1022
▁lat	-1023
erm	-1024
AL	-1025
ene	-1026
ady	-1027
▁eff	-1028
▁progr	-1029
▁largest	-1030
▁between	-1031
▁Off	-1032
ai	-1033
▁sm	-1034
▁sw	-1035
ched	-1036
▁execut	-1037
iew	-1038
▁disc	-1039
error	-1040
▁them	-1041
▁if	-1042
▁chief	-1043
ears	-1044
▁incre	-1045
ising	-1046
//	-1047
▁South	-1048
▁reb	-1049
▁during	-1050
://	-1051
ttp	-1052
ised	-1053
ley	-1054
ards	-1055
▁profit	-1056
ouse	-1057
▁claim	-1058
▁through	-1059
▁companies	-1060
fer	-1061
▁talks	-1062
http	-1063
▁Se	-1064
66	-1065
▁ext	-1066
▁Oct	-1067
▁hop	-1068
▁pay	-1069
▁what	-1070
ains	-1071
▁according	-1072
rew	-1073
▁test	-1074
▁gl	-1075
eeks	-1076
▁add	-1077
ale	-1078
▁bat	-1079
ered	-1080
ivers	-1081
▁service	-1082
gin	-1083
▁coach	-1084
rem	-1085
EN	-1086
ots	-1087
▁'	-1088
raw	-1089
▁leader	-1090
▁ra	-1091
▁Ara	-1092
▁loss	-1093
www	-1094
▁now	-1095
ages	-1096
▁Car	-1097
▁expected	-1098
alf	-1099
▁susp	-1100
ireless	-1101
▁intern	-1102
▁another	-1103
▁six	-1104
ty	-1105
uction	-1106
uclear	-1107
▁League	-1108
to	-1109
ution	-1110
af	-1111
▁aut	-1112
▁Open	-1113
rup	-1114
ract	-1115
owing	-1116
acle	-1117
used	-1118
ility	-1119
▁giant	-1120
IS	-1121
eneral	-1122
▁fil	-1123
▁inj	-1124
▁pe	-1125
▁stri	-1126
▁expl	-1127
▁meet	-1128
▁Pak	-1129
▁Ag	-1130
ications	-1131
son	-1132
ns	-1133
▁20	-1134
info	-1135
▁search	-1136
ticker	-1137
▁Sept	-1138
reuters	-1139
REF	-1140
▁HREF	-1141
▁tele	-1142
ife	-1143
▁Man	-1144
▁power	-1145
▁left	-1146
▁attack	-1147
ects	-1148
ashington	-1149
▁Group	-1150
▁state	-1151
ret	-1152
▁dollar	-1153
pos	-1154
erry	-1155
▁AFP	-1156
-2	-1157
▁sub	-1158
▁way	-1159
ured	-1160
ading	-1161
▁del	-1162
▁cost	-1163
▁North	-1164
▁Will	-1165
▁pass	-1166
▁Australia	-1167
▁gu	-1168
▁produc	-1169
▁since	-1170
▁threat	-1171
hel	-1172
▁Bank	-1173
▁After	-1174
▁inf	-1175
▁still	-1176
▁Gre	-1177
▁Afgh	-1178
iver	-1179
back	-1180
▁AT	-1181
eed	-1182
▁riv	-1183
▁prot	-1184
▁court	-1185
▁Pakistan	-1186
▁mov	-1187
▁while	-1188
▁move	-1189
▁early	-1190
▁11	-1191
▁Br	-1192
▁sell	-1193
▁International	-1194
▁Iran	-1195
▁being	-1196
▁industry	-1197
▁miss	-1198
ments	-1199
50	-1200
▁police	-1201
mb	-1202
▁Ab	-1203
▁Cr	-1204
▁found	-1205
▁Prime	-1206
▁War	-1207
sh	-1208
▁camp	-1209
ights	-1210
▁return	-1211
▁strong	-1212
str	-1213
bers	-1214
asp	-1215
uel	-1216
vestor	-1217
down	-1218
▁program	-1219
▁Ass	-1220
▁amp	-1221
▁deb	-1222
▁dead	-1223
▁ant	-1224
▁Apple	-1225
off	-1226
min	-1227
▁music	-1228
▁He	-1229
▁any	-1230
ism	-1231
▁put	-1232
▁Wind	-1233
▁i	-1234
▁share	-1235
▁military	-1236
▁agreed	-1237
▁Sox	-1238
▁Afghan	-1239
be	-1240
EL	-1241
ison	-1242
ries	-1243
▁Kore	-1244
obal	-1245
ress	-1246
▁cent	-1247
iol	-1248
ator	-1249
date	-1250
▁Calif	-1251
aza	-1252
uk	-1253
▁Oracle	-1254
par	-1255
▁months	-1256
▁Champions	-1257
▁Dav	-1258
▁PC	-1259
ench	-1260
rupt	-1261
▁Sun	-1262
▁election	-1263
▁col	-1264
▁growth	-1265
▁ever	-1266
▁NAS	-1267
▁Israeli	-1268
CO	-1269
full	-1270
ific	-1271
INGTON	-1272
▁...	-1273
▁days	-1274
stocks	-1275
oon	-1276
▁par	-1277
ches	-1278
▁look	-1279
▁rul	-1280
quick	-1281
▁only	-1282
▁computer	-1283
quote	-1284
idn	-1285
investor	-1286
=/	-1287
Full	-1288
aspx	-1289
ators	-1290
▁People	-1291
FullQuote	-1292
fullquote	-1293
quickinfo	-1294
▁12	-1295
▁nuclear	-1296
ves	-1297
▁because	-1298
▁sold	-1299
ible	-1300
▁State	-1301
ys	-1302
urg	-1303
ource	-1304
▁clos	-1305
▁Olympic	-1306
ises	-1307
▁terror	-1308
ross	-1309
oci	-1310
▁Windows	-1311
ne	-1312
▁Afr	-1313
▁even	-1314
▁England	-1315
▁Mc	-1316
▁rest	-1317
▁online	-1318
tain	-1319
oth	-1320
reet	-1321
▁drug	-1322
▁Russia	-1323
▁min	-1324
▁Intel	-1325
urrican	-1326
▁News	-1327
erson	-1328
▁Fall	-1329
US	-1330
▁Bag	-1331
▁num	-1332
▁National	-1333
▁mobile	-1334
ASH	-1335
ips	-1336
▁Russian	-1337
arm	-1338
ored	-1339
▁hold	-1340
▁By	-1341
▁And	-1342
put	-1343
irect	-1344
ootball	-1345
pite	-1346
iers	-1347
▁But	-1348
TO	-1349
int	-1350
▁phone	-1351
▁research	-1352
rest	-1353
▁round	-1354
ider	-1355
▁San	-1356
▁including	-1357
ustom	-1358
-0	-1359
ude	-1360
▁foll	-1361
▁rev	-1362
my	-1363
▁Te	-1364
▁leg	-1365
enter	-1366
ASHINGTON	-1367
leg	-1368
▁beat	-1369
▁fall	-1370
▁bel	-1371
▁services	-1372
amil	-1373
Soft	-1374
▁West	-1375
▁WASHINGTON	-1376
OS	-1377
▁spec	-1378
▁Mich	-1379
hd	-1380
ater	-1381
▁there	-1382
▁stud	-1383
▁Indian	-1384
sp	-1385
▁Washington	-1386
▁latest	-1387
▁consum	-1388
let	-1389
cl	-1390
ative	-1391
▁should	-1392
▁ago	-1393
▁hand	-1394
▁Bo	-1395
▁bar	-1396
▁city	-1397
▁join	-1398
▁players	-1399
▁higher	-1400
rol	-1401
▁Sup	-1402
▁firm	-1403
hdad	-1404
raft	-1405
▁earnings	-1406
ida	-1407
▁like	-1408
▁space	-1409
uck	-1410
▁key	-1411
▁face	-1412
chool	-1413
▁Baghdad	-1414
▁All	-1415
based	-1416
▁Bar	-1417
▁keep	-1418
▁nation	-1419
▁points	-1420
▁retail	-1421
▁adv	-1422
▁Gaza	-1423
ES	-1424
▁rose	-1425
▁Ear	-1426
▁many	-1427
▁biggest	-1428
▁Research	-1429
▁released	-1430
▁fut	-1431
▁Q	-1432
▁EU	-1433
ores	-1434
▁mem	-1435
ideo	-1436
▁Stocks	-1437
▁Del	-1438
AG	-1439
▁need	-1440
oston	-1441
▁fight	-1442
▁stock	-1443
▁public	-1444
▁much	-1445
imes	-1446
▁shares	-1447
▁data	-1448
▁tit	-1449
▁compet	-1450
▁\$2	-1451
iting	-1452
▁turn	-1453
▁Aug	-1454
▁Network	-1455
res	-1456
▁Sud	-1457
▁2005	-1458
▁free	-1459
quarter	-1460
▁Dar	-1461
▁acqu	-1462
▁dou	-1463
ior	-1464
▁Dec	-1465
▁fell	-1466
▁PeopleSoft	-1467
▁peace	-1468
▁ref	-1469
ott	-1470
▁UK	-1471
▁viol	-1472
▁games	-1473
OND	-1474
ize	-1475
▁recent	-1476
▁che	-1477
ike	-1478
▁Qu	-1479
▁stocks	-1480
der	-1481
▁vers	-1482
▁Nov	-1483
lin	-1484
▁Sw	-1485
▁Sudan	-1486
▁Boston	-1487
▁Gu	-1488
ply	-1489
▁custom	-1490
▁troops	-1491
▁gold	-1492
ancial	-1493
ended	-1494
osition	-1495
▁vis	-1496
;&	-1497
▁Fin	-1498
aul	-1499
▁past	-1500
▁users	-1501
▁held	-1502
so	-1503
uts	-1504
eng	-1505
▁own	-1506
▁French	-1507
▁To	-1508
inux	-1509
▁fail	-1510
▁polit	-1511
▁fourth	-1512
acy	-1513
▁suc	-1514
iving	-1515
BA	-1516
▁wom	-1517
ONDON	-1518
▁av	-1519
▁international	-1520
aign	-1521
▁Ital	-1522
▁Phil	-1523
▁ahead	-1524
▁America	-1525
▁Australian	-1526
▁LONDON	-1527
▁Gr	-1528
igital	-1529
▁Press	-1530
▁Security	-1531
▁Two	-1532
▁contract	-1533
▁star	-1534
istr	-1535
oods	-1536
▁use	-1537
▁line	-1538
▁release	-1539
▁Dis	-1540
ized	-1541
▁Linux	-1542
ocr	-1543
rel	-1544
▁weeks	-1545
▁continu	-1546
▁Bu	-1547
mail	-1548
▁cor	-1549
ats	-1550
▁fac	-1551
▁economy	-1552
▁dev	-1553
6;	-1554
▁price	-1555
pe	-1556
▁region	-1557
▁ord	-1558
▁Ed	-1559
▁demand	-1560
▁trade	-1561
▁hom	-1562
▁High	-1563
▁launch	-1564
▁gr	-1565
▁direct	-1566
isco	-1567
red	-1568
▁leaders	-1569
▁Ge	-1570
ober	-1571
aker	-1572
▁where	-1573
ef	-1574
hor	-1575
▁Yan	-1576
▁15	-1577
▁Shar	-1578
▁forces	-1579
ases	-1580
▁red	-1581
▁process	-1582
opp	-1583
▁half	-1584
▁concer	-1585
oney	-1586
▁Mot	-1587
▁Wall	-1588
▁executive	-1589
loy	-1590
▁eng	-1591
▁reports	-1592
▁support	-1593
iger	-1594
rib	-1595
itch	-1596
▁Ac	-1597
▁Sy	-1598
▁poss	-1599
▁ban	-1600
▁Ang	-1601
▁18	-1602
▁May	-1603
▁Flor	-1604
▁press	-1605
▁stand	-1606
fits	-1607
fur	-1608
▁Gl	-1609
▁NASA	-1610
▁Associ	-1611
ject	-1612
ham	-1613
EO	-1614
▁Kerry	-1615
▁Street	-1616
▁how	-1617
erve	-1618
▁economic	-1619
▁stra	-1620
▁enter	-1621
urricane	-1622
fat	-1623
ends	-1624
▁One	-1625
▁presidential	-1626
ask	-1627
▁Pol	-1628
▁bet	-1629
▁Out	-1630
▁Not	-1631
▁main	-1632
▁Min	-1633
ientists	-1634
ults	-1635
ees	-1636
▁hist	-1637
▁federal	-1638
▁form	-1639
▁boost	-1640
▁lower	-1641
ided	-1642
▁emp	-1643
▁right	-1644
▁your	-1645
▁number	-1646
▁Fir	-1647
▁rival	-1648
lo	-1649
elf	-1650
riz	-1651
▁try	-1652
▁Union	-1653
▁title	-1654
▁investig	-1655
hold	-1656
ying	-1657
▁took	-1658
▁investors	-1659
▁Bra	-1660
TE	-1661
▁low	-1662
ness	-1663
▁opp	-1664
▁rece	-1665
▁Darfur	-1666
▁Sl	-1667
▁Florida	-1668
ought	-1669
▁Par	-1670
▁Ste	-1671
▁Elect	-1672
▁nearly	-1673
veil	-1674
▁hard	-1675
▁men	-1676
▁Mark	-1677
▁jobs	-1678
alt	-1679
▁Arafat	-1680
▁ev	-1681
▁called	-1682
atic	-1683
▁interest	-1684
▁Am	-1685
▁Court	-1686
▁close	-1687
▁City	-1688
▁series	-1689
▁#36;	-1690
pped	-1691
▁Serv	-1692
ills	-1693
▁14	-1694
▁Iv	-1695
▁Dem	-1696
▁death	-1697
▁used	-1698
▁Dep	-1699
▁inv	-1700
▁seven	-1701
▁sever	-1702
▁find	-1703
ides	-1704
▁Korea	-1705
unications	-1706
▁Game	-1707
▁Play	-1708
▁around	-1709
▁attacks	-1710
AM	-1711
EC	-1712
key	-1713
▁Japanese	-1714
lim	-1715
▁aim	-1716
BC	-1717
▁build	-1718
▁France	-1719
ams	-1720
kees	-1721
▁fund	-1722
ades	-1723
lines	-1724
▁sent	-1725
aid	-1726
ung	-1727
▁dri	-1728
Sports	-1729
orks	-1730
▁campaign	-1731
▁13	-1732
▁pop	-1733
▁global	-1734
idd	-1735
itt	-1736
▁killing	-1737
ael	-1738
▁Canadian	-1739
br	-1740
att	-1741
ired	-1742
ann	-1743
▁det	-1744
▁Yankees	-1745
file	-1746
▁network	-1747
ened	-1748
▁Says	-1749
▁Sch	-1750
▁late	-1751
▁workers	-1752
▁October	-1753
▁quest	-1754
▁care	-1755
uj	-1756
akes	-1757
▁September	-1758
iff	-1759
▁16	-1760
▁More	-1761
▁Over	-1762
IC	-1763
▁ca	-1764
▁lit	-1765
ergy	-1766
▁Rec	-1767
aving	-1768
▁mod	-1769
▁Federal	-1770
▁despite	-1771
cy	-1772
top	-1773
▁short	-1774
▁30	-1775
ging	-1776
▁case	-1777
orthern	-1778
udge	-1779
▁success	-1780
▁Big	-1781
▁leading	-1782
▁Franc	-1783
▁might	-1784
▁Des	-1785
▁Ham	-1786
▁prom	-1787
▁Britain	-1788
▁17	-1789
aring	-1790
outhern	-1791
TA	-1792
inals	-1793
abor	-1794
▁version	-1795
▁school	-1796
alk	-1797
▁also	-1798
▁appl	-1799
by	-1800
▁Rep	-1801
▁hol	-1802
idence	-1803
▁small	-1804
artment	-1805
▁Californ	-1806
▁Sony	-1807
▁following	-1808
▁\$4	-1809
uman	-1810
rod	-1811
▁pat	-1812
▁Commission	-1813
per	-1814
▁champ	-1815
▁dom	-1816
ij	-1817
▁break	-1818
▁video	-1819
▁arrest	-1820
▁William	-1821
amed	-1822
▁Geor	-1823
▁El	-1824
▁anal	-1825
ites	-1826
▁Def	-1827
ensive	-1828
adr	-1829
▁agreement	-1830
ished	-1831
▁TV	-1832
▁national	-1833
get	-1834
▁remain	-1835
.5	-1836
ait	-1837
igned	-1838
▁good	-1839
▁broad	-1840
▁rise	-1841
▁best	-1842
▁Fed	-1843
▁Vir	-1844
ener	-1845
▁tax	-1846
eth	-1847
▁fore	-1848
▁propos	-1849
uce	-1850
ute	-1851
▁ed	-1852
ession	-1853
▁eas	-1854
▁trans	-1855
ners	-1856
▁Sing	-1857
▁Space	-1858
ugg	-1859
sc	-1860
time	-1861
▁Lead	-1862
▁cre	-1863
▁capital	-1864
alth	-1865
▁cond	-1866
▁she	-1867
▁both	-1868
▁California	-1869
mit	-1870
▁Pe	-1871
mber	-1872
ystems	-1873
orts	-1874
▁ste	-1875
▁famil	-1876
▁sol	-1877
▁whe	-1878
▁well	-1879
ved	-1880
rove	-1881
▁Win	-1882
▁begin	-1883
ming	-1884
▁products	-1885
owed	-1886
▁Tex	-1887
▁touch	-1888
),	-1889
▁football	-1890
ways	-1891
▁mar	-1892
imb	-1893
▁curr	-1894
▁regul	-1895
▁:	-1896
aseball	-1897
▁customers	-1898
▁lik	-1899
▁Canada	-1900
▁inst	-1901
OL	-1902
▁away	-1903
▁outs	-1904
▁battle	-1905
ape	-1906
aster	-1907
▁Cont	-1908
▁minister	-1909
ler	-1910
▁give	-1911
▁SAN	-1912
ooks	-1913
▁Pat	-1914
iants	-1915
▁approv	-1916
ney	-1917
▁decision	-1918
▁Univers	-1919
▁step	-1920
▁person	-1921
▁financial	-1922
▁Su	-1923
▁here	-1924
▁future	-1925
ole	-1926
▁Nove	-1927
▁charges	-1928
erman	-1929
▁resp	-1930
▁forec	-1931
▁player	-1932
▁such	-1933
▁wireless	-1934
▁political	-1935
▁November	-1936
▁Computer	-1937
thers	-1938
▁equ	-1939
▁due	-1940
▁foreign	-1941
▁meeting	-1942
▁CEO	-1943
ension	-1944
▁crit	-1945
▁employ	-1946
-3	-1947
▁ur	-1948
▁race	-1949
▁Profit	-1950
▁digital	-1951
RAN	-1952
▁Hol	-1953
▁Test	-1954
▁manager	-1955
▁Michael	-1956
▁results	-1957
▁emb	-1958
uf	-1959
umb	-1960
▁scored	-1961
▁\$5	-1962
▁cell	-1963
▁Net	-1964
ren	-1965
ians	-1966
▁Med	-1967
▁champion	-1968
▁exper	-1969
▁Germ	-1970
▁match	-1971
▁TO	-1972
▁told	-1973
formation	-1974
▁General	-1975
of	-1976
ering	-1977
inese	-1978
▁engine	-1979
ric	-1980
go	-1981
▁Ma	-1982
▁list	-1983
15	-1984
▁beh	-1985
▁unveil	-1986
▁Sen	-1987
▁pull	-1988
airman	-1989
▁straight	-1990
prise	-1991
ago	-1992
▁chip	-1993
▁life	-1994
ern	-1995
hens	-1996
▁div	-1997
▁loc	-1998
urt	-1999
rows	-2000
▁saying	-2001
▁several	-2002
▁Hurricane	-2003
▁costs	-2004
▁whether	-2005
ours	-2006
ett	-2007
oid	-2008
▁How	-2009
▁Mus	-2010
▁proble	-2011
we	-2012
▁reven	-2013
▁without	-2014
inal	-2015
▁Texas	-2016
▁Post	-2017
▁settle	-2018
Pod	-2019
▁every	-2020
▁Chinese	-2021
ston	-2022
▁mer	-2023
▁trial	-2024
▁Profile	-2025
▁ob	-2026
▁site	-2027
▁IT	-2028
▁100	-2029
▁mor	-2030
▁issu	-2031
▁Shares	-2032
▁control	-2033
ential	-2034
▁become	-2035
estern	-2036
▁elections	-2037
osp	-2038
adio	-2039
rown	-2040
view	-2041
▁Chr	-2042
▁Sm	-2043
▁Mac	-2044
▁eight	-2045
▁author	-2046
lam	-2047
▁Per	-2048
▁clear	-2049
▁perform	-2050
▁Ret	-2051
most	-2052
▁little	-2053
▁Williams	-2054
ody	-2055
enal	-2056
▁Championship	-2057
IL	-2058
▁We	-2059
▁Tur	-2060
aps	-2061
era	-2062
ift	-2063
▁August	-2064
▁This	-2065
retary	-2066
▁Quote	-2067
▁est	-2068
idnapp	-2069
ker	-2070
for	-2071
▁few	-2072
AT	-2073
▁Cong	-2074
etworks	-2075
▁champions	-2076
▁expect	-2077
▁sk	-2078
▁Att	-2079
▁Series	-2080
▁opt	-2081
▁\$3	-2082
▁Gold	-2083
▁25	-2084
look	-2085
▁rock	-2086
ktop	-2087
▁media	-2088
▁across	-2089
▁making	-2090
▁polic	-2091
ministr	-2092
change	-2093
▁Germany	-2094
▁launched	-2095
ana	-2096
▁better	-2097
▁Wireless	-2098
▁winning	-2099
▁reach	-2100
avy	-2101
▁weekend	-2102
aff	-2103
▁does	-2104
ane	-2105
▁strike	-2106
▁lost	-2107
▁0	-2108
▁NF	-2109
▁shar	-2110
▁trad	-2111
▁place	-2112
▁fire	-2113
▁wound	-2114
▁bankrupt	-2115
▁great	-2116
icket	-2117
ection	-2118
▁agency	-2119
IT	-2120
ahoo	-2121
▁neg	-2122
▁history	-2123
▁running	-2124
isk	-2125
the	-2126
▁increase	-2127
akers	-2128
▁telev	-2129
▁Democr	-2130
\\	-2131
▁quarterly	-2132
iet	-2133
▁women	-2134
vers	-2135
▁Che	-2136
▁House	-2137
▁analyst	-2138
ived	-2139
▁health	-2140
ached	-2141
▁pres	-2142
lex	-2143
▁Search	-2144
▁Afghanistan	-2145
▁consumer	-2146
ps	-2147
▁German	-2148
▁Mo	-2149
▁Tal	-2150
▁Je	-2151
ories	-2152
▁Just	-2153
▁Stri	-2154
asts	-2155
▁come	-2156
▁vote	-2157
▁using	-2158
aper	-2159
▁Bill	-2160
pected	-2161
▁hostage	-2162
▁Mart	-2163
▁hopes	-2164
icans	-2165
▁Har	-2166
▁Mer	-2167
▁same	-2168
▁chall	-2169
▁likely	-2170
urance	-2171
▁priv	-2172
▁Chief	-2173
▁Bay	-2174
▁Islam	-2175
ode	-2176
▁AM	-2177
oint	-2178
field	-2179
▁Indones	-2180
▁belie	-2181
ather	-2182
▁anti	-2183
▁fans	-2184
▁stat	-2185
▁Yahoo	-2186
ona	-2187
ont	-2188
▁sen	-2189
▁management	-2190
ID	-2191
▁iPod	-2192
▁24	-2193
ament	-2194
▁taking	-2195
iles	-2196
ience	-2197
▁less	-2198
ufact	-2199
▁poll	-2200
▁David	-2201
▁Department	-2202
itz	-2203
adium	-2204
▁field	-2205
▁barrel	-2206
▁showed	-2207
ousands	-2208
-4	-2209
▁far	-2210
▁Part	-2211
▁board	-2212
▁feat	-2213
IA	-2214
▁21	-2215
▁Cons	-2216
▁touchdown	-2217
lier	-2218
AC	-2219
▁attem	-2220
▁dr	-2221
etro	-2222
▁see	-2223
ganiz	-2224
ondon	-2225
▁lawsu	-2226
▁did	-2227
ified	-2228
▁warned	-2229
▁Ast	-2230
▁members	-2231
ule	-2232
▁East	-2233
▁child	-2234
▁operating	-2235
▁jump	-2236
▁accused	-2237
▁London	-2238
oti	-2239
lant	-2240
ication	-2241
LE	-2242
▁toward	-2243
td	-2244
▁posted	-2245
cil	-2246
▁shot	-2247
▁led	-2248
itive	-2249
▁among	-2250
▁rates	-2251
▁sum	-2252
▁Falluj	-2253
▁gas	-2254
▁confir	-2255
--	-2256
.2	-2257
▁ent	-2258
leged	-2259
▁Paul	-2260
▁full	-2261
HE	-2262
ta	-2263
▁fuel	-2264
▁Former	-2265
ads	-2266
▁vir	-2267
▁Cub	-2268
olution	-2269
▁ve	-2270
▁NFL	-2271
▁Char	-2272
▁morning	-2273
▁access	-2274
aking	-2275
▁club	-2276
▁action	-2277
▁explos	-2278
▁ask	-2279
▁drop	-2280
▁Ars	-2281
▁amid	-2282
▁dist	-2283
▁ce	-2284
▁po	-2285
porate	-2286
.3	-2287
▁seek	-2288
▁Athens	-2289
▁behind	-2290
ening	-2291
▁When	-2292
▁medal	-2293
▁Nations	-2294
▁University	-2295
vey	-2296
▁prison	-2297
▁takes	-2298
ocus	-2299
▁Chic	-2300
▁ball	-2301
▁wins	-2302
▁Africa	-2303
▁Ry	-2304
ared	-2305
▁Braz	-2306
▁possible	-2307
▁Ju	-2308
aced	-2309
raud	-2310
▁too	-2311
▁Real	-2312
▁visit	-2313
▁claims	-2314
ino	-2315
▁information	-2316
.1	-2317
▁Me	-2318
▁Report	-2319
yo	-2320
ota	-2321
set	-2322
▁violence	-2323
▁going	-2324
▁Virgin	-2325
▁eu	-2326
▁Rob	-2327
▁Olympics	-2328
▁Bel	-2329
▁rate	-2330
▁Black	-2331
▁Lou	-2332
▁mid	-2333
▁Jones	-2334
-6	-2335
ENS	-2336
▁activ	-2337
▁human	-2338
amb	-2339
osing	-2340
▁watch	-2341
aces	-2342
ately	-2343
itions	-2344
▁FRAN	-2345
▁land	-2346
▁repl	-2347
que	-2348
ances	-2349
▁Brazil	-2350
▁Hou	-2351
▁bring	-2352
▁Giants	-2353
▁Online	-2354
ges	-2355
ined	-2356
▁appear	-2357
▁phones	-2358
▁withd	-2359
▁Sales	-2360
▁Muslim	-2361
▁militants	-2362
▁Jan	-2363
▁cash	-2364
▁emer	-2365
▁trading	-2366
reas	-2367
▁sem	-2368
asser	-2369
▁came	-2370
ews	-2371
eles	-2372
▁doc	-2373
▁infl	-2374
▁began	-2375
ald	-2376
▁el	-2377
ouncil	-2378
▁Spain	-2379
▁injured	-2380
▁Blair	-2381
ready	-2382
oring	-2383
▁got	-2384
▁vot	-2385
ena	-2386
▁chang	-2387
▁mess	-2388
▁crude	-2389
The	-2390
ourn	-2391
▁Next	-2392
▁profits	-2393
ama	-2394
▁Ro	-2395
band	-2396
andid	-2397
▁mass	-2398
▁tool	-2399
ues	-2400
▁almost	-2401
▁Houston	-2402
▁scientists	-2403
inc	-2404
▁Americans	-2405
▁Ann	-2406
▁Chicago	-2407
ONT	-2408
▁Ltd	-2409
▁old	-2410
▁doub	-2411
▁push	-2412
▁signed	-2413
▁takeover	-2414
yn	-2415
▁change	-2416
cast	-2417
▁Top	-2418
▁bankruptcy	-2419
ivil	-2420
▁Deal	-2421
▁First	-2422
MS	-2423
▁hot	-2424
▁offering	-2425
▁soldiers	-2426
▁contin	-2427
▁popular	-2428
▁vo	-2429
raph	-2430
▁sim	-2431
▁African	-2432
ministration	-2433
ption	-2434
▁nine	-2435
▁alleged	-2436
▁Secretary	-2437
Up	-2438
▁real	-2439
▁senior	-2440
wan	-2441
owl	-2442
▁Tro	-2443
▁helped	-2444
ev	-2445
ars	-2446
6666	-2447
▁confer	-2448
ring	-2449
▁introd	-2450
▁television	-2451
UR	-2452
oes	-2453
▁energy	-2454
▁saf	-2455
▁soon	-2456
AD	-2457
▁requ	-2458
1;	-2459
▁199	-2460
▁Tra	-2461
▁died	-2462
▁carri	-2463
▁level	-2464
ecutive	-2465
▁northern	-2466
reen	-2467
VD	-2468
▁ver	-2469
BS	-2470
▁Business	-2471
▁SP	-2472
▁Games	-2473
▁those	-2474
urch	-2475
▁met	-2476
▁unit	-2477
▁study	-2478
▁product	-2479
wide	-2480
apons	-2481
▁Atlant	-2482
run	-2483
gypt	-2484
▁Down	-2485
▁Tech	-2486
uses	-2487
▁ended	-2488
ece	-2489
asing	-2490
▁judge	-2491
St	-2492
comm	-2493
ources	-2494
▁party	-2495
▁career	-2496
▁source	-2497
▁production	-2498
HENS	-2499
icide	-2500
▁gain	-2501
okes	-2502
rust	-2503
▁sing	-2504
▁money	-2505
vious	-2506
icks	-2507
▁Inter	-2508
▁fur	-2509
▁fact	-2510
▁negoti	-2511
▁unt	-2512
▁capt	-2513
▁cuts	-2514
▁bill	-2515
ronics	-2516
▁Airways	-2517
ream	-2518
▁storm	-2519
▁kidnapp	-2520
▁AN	-2521
▁ATHENS	-2522
▁southern	-2523
utch	-2524
▁Sharon	-2525
anches	-2526
▁earlier	-2527
ashed	-2528
▁init	-2529
▁Niger	-2530
▁pitch	-2531
▁FRANC	-2532
▁opening	-2533
▁manufact	-2534
▁calls	-2535
▁publ	-2536
▁ple	-2537
▁must	-2538
ander	-2539
▁Miss	-2540
▁web	-2541
▁shut	-2542
iron	-2543
▁concerns	-2544
▁fre	-2545
▁ter	-2546
press	-2547
▁heart	-2548
ospital	-2549
expected	-2550
▁Service	-2551
▁Bro	-2552
▁yet	-2553
▁gets	-2554
▁revenue	-2555
.7	-2556
asket	-2557
▁Egypt	-2558
▁performance	-2559
▁suff	-2560
undred	-2561
▁defense	-2562
KY	-2563
ety	-2564
▁sched	-2565
urd	-2566
ISCO	-2567
▁efforts	-2568
▁fe	-2569
▁Wal	-2570
▁announce	-2571
SE	-2572
▁Cle	-2573
eing	-2574
▁rej	-2575
▁Three	-2576
▁Italian	-2577
▁corporate	-2578
isis	-2579
▁Job	-2580
▁pot	-2581
▁recover	-2582
▁End	-2583
▁Asia	-2584
▁personal	-2585
▁countries	-2586
wood	-2587
▁Tok	-2588
▁NBA	-2589
▁Put	-2590
▁general	-2591
ille	-2592
▁net	-2593
▁Back	-2594
▁already	-2595
▁FRANCISCO	-2596
▁CH	-2597
▁Kar	-2598
ining	-2599
▁mult	-2600
▁conference	-2601
▁let	-2602
▁fast	-2603
▁seem	-2604
▁Grand	-2605
▁force	-2606
▁trying	-2607
▁Los	-2608
▁hope	-2609
▁Reserve	-2610
KYO	-2611
olf	-2612
▁Arab	-2613
▁makes	-2614
▁Invest	-2615
▁account	-2616
▁Bomb	-2617
▁Association	-2618
▁Ivan	-2619
▁gave	-2620
reme	-2621
▁TOKYO	-2622
▁Louis	-2623
▁markets	-2624
isc	-2625
une	-2626
151;	-2627
▁#151;	-2628
aq	-2629
▁den	-2630
▁sug	-2631
▁Hold	-2632
▁hours	-2633
▁outside	-2634
▁Communications	-2635
▁Dell	-2636
▁They	-2637
▁conv	-2638
▁sale	-2639
▁ready	-2640
▁Council	-2641
ny	-2642
▁Aut	-2643
▁Don	-2644
▁Ver	-2645
iance	-2646
▁If	-2647
▁aid	-2648
enger	-2649
▁Christ	-2650
ently	-2651
iddle	-2652
▁enough	-2653
▁forecast	-2654
).	-2655
rong	-2656
vert	-2657
anced	-2658
▁expand	-2659
▁Systems	-2660
▁growing	-2661
tor	-2662
▁22	-2663
▁sn	-2664
rial	-2665
▁Tokyo	-2666
▁yards	-2667
▁mat	-2668
▁Kill	-2669
▁Software	-2670
▁port	-2671
▁legal	-2672
▁George	-2673
▁continue	-2674
utes	-2675
unity	-2676
▁reached	-2677
ily	-2678
▁civil	-2679
▁stake	-2680
▁arrested	-2681
▁computers	-2682
.4	-2683
▁23	-2684
▁avail	-2685
▁Cisco	-2686
▁qualif	-2687
ually	-2688
ically	-2689
▁rebels	-2690
resh	-2691
▁Airlines	-2692
▁Fire	-2693
▁stop	-2694
Update	-2695
▁Tit	-2696
▁Earth	-2697
▁She	-2698
▁opposition	-2699
▁teams	-2700
▁union	-2701
ds	-2702
▁within	-2703
▁Arsenal	-2704
▁consider	-2705
SP	-2706
lege	-2707
▁cop	-2708
▁invol	-2709
.8	-2710
mir	-2711
▁Mos	-2712
ishing	-2713
▁Green	-2714
▁file	-2715
▁White	-2716
▁candid	-2717
ple	-2718
ayed	-2719
▁defeat	-2720
edit	-2721
occer	-2722
ulation	-2723
▁insurg	-2724
▁league	-2725
▁systems	-2726
▁reve	-2727
▁question	-2728
acing	-2729
▁aimed	-2730
▁local	-2731
▁until	-2732
▁charged	-2733
asketball	-2734
ender	-2735
▁prepar	-2736
▁analysts	-2737
bus	-2738
enge	-2739
rian	-2740
▁rep	-2741
▁rally	-2742
▁others	-2743
▁airline	-2744
CP	-2745
▁Law	-2746
▁writ	-2747
ront	-2748
▁Mal	-2749
▁taken	-2750
▁Yasser	-2751
▁lift	-2752
ertain	-2753
▁double	-2754
▁effort	-2755
▁Ec	-2756
▁Pac	-2757
▁Army	-2758
▁coll	-2759
▁Palestinians	-2760
iami	-2761
▁Hew	-2762
▁Mor	-2763
imate	-2764
▁Dollar	-2765
▁weapons	-2766
▁lo	-2767
▁fav	-2768
iffer	-2769
▁From	-2770
▁each	-2771
▁arriv	-2772
anchester	-2773
me	-2774
▁DVD	-2775
inks	-2776
ipped	-2777
▁slow	-2778
orage	-2779
▁super	-2780
▁Manchester	-2781
▁BAG	-2782
▁once	-2783
▁failed	-2784
▁office	-2785
▁starting	-2786
▁Again	-2787
▁focus	-2788
▁wants	-2789
▁continued	-2790
▁competition	-2791
aud	-2792
mar	-2793
unt	-2794
▁THE	-2795
▁pos	-2796
▁Cent	-2797
▁pract	-2798
▁spokes	-2799
▁central	-2800
▁deliver	-2801
▁authorities	-2802
ault	-2803
oung	-2804
aled	-2805
▁domin	-2806
▁spending	-2807
oto	-2808
ails	-2809
FONT	-2810
▁Card	-2811
▁suggest	-2812
ability	-2813
▁disput	-2814
▁retailer	-2815
▁PM	-2816
held	-2817
iven	-2818
uary	-2819
▁Madr	-2820
▁euro	-2821
▁Davis	-2822
▁event	-2823
▁fresh	-2824
▁suppl	-2825
nes	-2826
▁UP	-2827
▁Expl	-2828
▁policy	-2829
comp	-2830
▁Asian	-2831
▁block	-2832
▁championship	-2833
DAD	-2834
ban	-2835
▁coun	-2836
▁previous	-2837
▁Miami	-2838
▁further	-2839
uge	-2840
▁aff	-2841
▁special	-2842
▁investment	-2843
HDAD	-2844
▁Set	-2845
▁fig	-2846
onds	-2847
ournal	-2848
▁Francisco	-2849
han	-2850
ims	-2851
▁Rock	-2852
▁BAGHDAD	-2853
▁finally	-2854
▁downlo	-2855
▁center	-2856
UL	-2857
▁quarterback	-2858
phone	-2859
▁filed	-2860
▁Madrid	-2861
▁MS	-2862
cing	-2863
right	-2864
tered	-2865
▁draw	-2866
▁raised	-2867
icip	-2868
▁2006	-2869
▁Power	-2870
▁Update	-2871
▁ey	-2872
▁Now	-2873
▁Hel	-2874
▁27	-2875
▁gun	-2876
▁Stud	-2877
▁seen	-2878
▁Cap	-2879
▁Stadium	-2880
▁dam	-2881
ealth	-2882
▁Music	-2883
▁hands	-2884
▁Prices	-2885
bit	-2886
icted	-2887
▁executives	-2888
gers	-2889
mark	-2890
▁Sur	-2891
▁Tom	-2892
▁Drug	-2893
▁operations	-2894
▁50	-2895
▁sat	-2896
ounds	-2897
▁fraud	-2898
▁thousands	-2899
▁Ins	-2900
▁Tor	-2901
▁travel	-2902
▁designed	-2903
▁pack	-2904
▁side	-2905
▁family	-2906
▁pressure	-2907
add	-2908
▁Vi	-2909
anks	-2910
▁Ant	-2911
ellite	-2912
rovers	-2913
aded	-2914
unes	-2915
▁Prem	-2916
obe	-2917
sue	-2918
rich	-2919
▁Acc	-2920
▁env	-2921
▁looking	-2922
elt	-2923
▁pred	-2924
▁Enter	-2925
▁rebel	-2926
▁potential	-2927
illeg	-2928
▁hits	-2929
▁gains	-2930
liam	-2931
kins	-2932
▁Pay	-2933
▁drive	-2934
▁Center	-2935
▁injury	-2936
▁,	-2937
▁coming	-2938
▁ground	-2939
▁strugg	-2940
hib	-2941
▁size	-2942
asters	-2943
liament	-2944
▁crisis	-2945
▁dollars	-2946
▁ow	-2947
▁don	-2948
order	-2949
▁That	-2950
▁comb	-2951
▁speed	-2952
men	-2953
part	-2954
iding	-2955
▁talk	-2956
▁There	-2957
▁track	-2958
▁Congress	-2959
.'	-2960
ural	-2961
anked	-2962
▁went	-2963
CC	-2964
hest	-2965
▁mon	-2966
▁ruling	-2967
eck	-2968
ilt	-2969
ipment	-2970
▁Coast	-2971
urities	-2972
▁My	-2973
aches	-2974
▁goal	-2975
reland	-2976
▁insurance	-2977
HL	-2978
▁Trade	-2979
▁allow	-2980
▁Bowl	-2981
verage	-2982
undreds	-2983
kia	-2984
post	-2985
▁rights	-2986
ico	-2987
lom	-2988
ashes	-2989
porters	-2990
.0	-2991
EM	-2992
▁Mil	-2993
▁Park	-2994
▁risk	-2995
▁chips	-2996
▁Exchange	-2997
ze	-2998
▁val	-2999
▁spot	-3000
▁Seat	-3001
▁spam	-3002
▁then	-3003
▁Motor	-3004
▁Do	-3005
aging	-3006
▁gener	-3007
▁withdraw	-3008
.6	-3009
lebr	-3010
tors	-3011
▁desktop	-3012
oman	-3013
▁Nokia	-3014
▁store	-3015
▁getting	-3016
▁chairman	-3017
ells	-3018
▁Plan	-3019
opping	-3020
▁IP	-3021
▁Rod	-3022
▁supply	-3023
irc	-3024
month	-3025
▁Prot	-3026
▁town	-3027
itness	-3028
▁Stock	-3029
▁large	-3030
▁holiday	-3031
▁children	-3032
▁powerful	-3033
aves	-3034
▁Ken	-3035
▁Mex	-3036
▁Spr	-3037
thlet	-3038
▁Port	-3039
▁Ireland	-3040
▁protest	-3041
icit	-3042
▁Time	-3043
▁bene	-3044
rowser	-3045
▁Exp	-3046
icial	-3047
▁ident	-3048
▁Boeing	-3049
▁Angeles	-3050
▁28	-3051
aged	-3052
▁never	-3053
DATE	-3054
uced	-3055
▁Mont	-3056
▁discuss	-3057
▁provide	-3058
game	-3059
▁Tai	-3060
▁pil	-3061
▁fears	-3062
▁treat	-3063
cept	-3064
anger	-3065
maker	-3066
▁heavy	-3067
▁charge	-3068
Mart	-3069
▁beg	-3070
▁driv	-3071
ention	-3072
▁Talks	-3073
▁businesses	-3074
▁investigation	-3075
▁pick	-3076
▁illeg	-3077
ula	-3078
▁vol	-3079
using	-3080
▁canc	-3081
▁Ir	-3082
▁tw	-3083
ceed	-3084
▁want	-3085
▁Ryder	-3086
▁fired	-3087
▁prime	-3088
▁selling	-3089
▁fighting	-3090
-5	-3091
OM	-3092
ype	-3093
ably	-3094
▁name	-3095
▁Italy	-3096
▁strate	-3097
▁working	-3098
ym	-3099
alled	-3100
▁Tony	-3101
▁Milit	-3102
ope	-3103
▁survey	-3104
kra	-3105
osed	-3106
▁Dutch	-3107
sw	-3108
oper	-3109
uff	-3110
▁annual	-3111
▁problems	-3112
arra	-3113
iber	-3114
▁planned	-3115
▁available	-3116
▁army	-3117
▁Fore	-3118
IR	-3119
▁Yuk	-3120
▁Tenn	-3121
▁Wins	-3122
▁times	-3123
▁expectations	-3124
miss	-3125
rief	-3126
▁Delta	-3127
▁Singh	-3128
▁Astros	-3129
▁playoff	-3130
rize	-3131
▁tour	-3132
▁disapp	-3133
ria	-3134
itor	-3135
ailed	-3136
▁weak	-3137
ctions	-3138
▁Paris	-3139
illa	-3140
▁Yukos	-3141
▁chance	-3142
▁baseball	-3143
asd	-3144
rap	-3145
▁Adv	-3146
▁Tour	-3147
▁Ukra	-3148
▁Police	-3149
▁Johnson	-3150
▁som	-3151
asdaq	-3152
▁Taiwan	-3153
ronic	-3154
▁Team	-3155
ploy	-3156
▁cour	-3157
urning	-3158
▁private	-3159
ifth	-3160
▁Some	-3161
▁Span	-3162
ference	-3163
▁Disney	-3164
▁UPDATE	-3165
▁rivals	-3166
▁consumers	-3167
echnologies	-3168
▁1,	-3169
▁runs	-3170
▁term	-3171
IP	-3172
NE	-3173
hic	-3174
▁rules	-3175
▁Seattle	-3176
MC	-3177
▁dro	-3178
overed	-3179
oming	-3180
▁point	-3181
▁attempt	-3182
agu	-3183
ords	-3184
▁Work	-3185
▁hospital	-3186
ackers	-3187
▁differ	-3188
▁Islamic	-3189
▁approved	-3190
▁es	-3191
▁unveiled	-3192
ixed	-3193
awi	-3194
▁Four	-3195
▁above	-3196
▁blast	-3197
▁named	-3198
▁decided	-3199
▁confirmed	-3200
merc	-3201
▁Football	-3202
▁development	-3203
▁IN	-3204
▁order	-3205
▁appeal	-3206
▁stores	-3207
▁Foreign	-3208
egr	-3209
oys	-3210
▁Tw	-3211
ruct	-3212
▁Pan	-3213
▁Chel	-3214
▁bird	-3215
illing	-3216
▁improve	-3217
▁BE	-3218
stit	-3219
▁know	-3220
▁flight	-3221
FT	-3222
▁Treas	-3223
▁So	-3224
▁Hen	-3225
▁known	-3226
▁Mobile	-3227
▁import	-3228
▁HP	-3229
▁gra	-3230
▁Putin	-3231
▁worth	-3232
▁regulators	-3233
MW	-3234
▁Blue	-3235
▁house	-3236
ume	-3237
▁Ty	-3238
▁Woods	-3239
▁asked	-3240
▁AL	-3241
anium	-3242
▁missing	-3243
▁Sol	-3244
actor	-3245
▁crow	-3246
▁separ	-3247
▁tourn	-3248
▁rising	-3249
▁leave	-3250
▁radio	-3251
mercial	-3252
▁Fallujah	-3253
;,	-3254
fl	-3255
▁Reb	-3256
▁Sil	-3257
ction	-3258
atives	-3259
▁26	-3260
ained	-3261
▁Laun	-3262
▁celebr	-3263
▁warning	-3264
▁controvers	-3265
▁prob	-3266
▁Brown	-3267
mo	-3268
▁2003	-3269
vention	-3270
term	-3271
owell	-3272
▁Hait	-3273
▁body	-3274
▁card	-3275
▁view	-3276
▁current	-3277
▁lawsuit	-3278
▁suicide	-3279
▁40	-3280
▁Buy	-3281
▁spe	-3282
▁Long	-3283
▁Rich	-3284
▁conn	-3285
che	-3286
▁La	-3287
▁debt	-3288
▁shows	-3289
ushed	-3290
illions	-3291
▁sharehold	-3292
olph	-3293
assin	-3294
▁area	-3295
▁acquis	-3296
ya	-3297
ving	-3298
uments	-3299
rought	-3300
▁color	-3301
▁mort	-3302
▁employees	-3303
▁AMD	-3304
▁You	-3305
▁issue	-3306
▁server	-3307
▁captain	-3308
▁December	-3309
pan	-3310
alls	-3311
season	-3312
▁think	-3313
andal	-3314
etroit	-3315
▁probe	-3316
10	-3317
▁Val	-3318
▁Bang	-3319
▁increased	-3320
TS	-3321
▁Us	-3322
▁mag	-3323
ashmir	-3324
ganization	-3325
AGO	-3326
▁Mike	-3327
▁firms	-3328
ironment	-3329
."	-3330
▁Wi	-3331
▁Roy	-3332
▁upgr	-3333
▁2004,	-3334
▁Minnes	-3335
▁position	-3336
▁suspected	-3337
uit	-3338
▁stay	-3339
▁along	-3340
▁merger	-3341
▁Kashmir	-3342
▁claimed	-3343
bo	-3344
▁Pri	-3345
ibility	-3346
▁effect	-3347
▁turned	-3348
▁Minnesota	-3349
▁Charg	-3350
▁later	-3351
▁giving	-3352
▁offers	-3353
ify	-3354
beat	-3355
▁Tim	-3356
ively	-3357
▁Data	-3358
▁Steve	-3359
▁light	-3360
▁Detroit	-3361
▁Day	-3362
istry	-3363
▁appro	-3364
▁sites	-3365
▁closer	-3366
▁Consum	-3367
▁mission	-3368
eric	-3369
▁Hall	-3370
▁happ	-3371
▁Indonesia	-3372
ola	-3373
▁row	-3374
▁Form	-3375
▁moved	-3376
▁Greece	-3377
▁issues	-3378
▁Go	-3379
▁Rise	-3380
▁water	-3381
▁Sprint	-3382
▁equipment	-3383
In	-3384
hy	-3385
▁Pre	-3386
▁link	-3387
▁urged	-3388
kes	-3389
▁Its	-3390
▁squ	-3391
craft	-3392
iracy	-3393
ilities	-3394
▁Global	-3395
▁groups	-3396
▁devices	-3397
sea	-3398
elph	-3399
▁added	-3400
▁complet	-3401
▁outlook	-3402
▁administration	-3403
ocked	-3404
elphia	-3405
▁appar	-3406
▁newsp	-3407
▁received	-3408
▁applications	-3409
▁bad	-3410
▁Tele	-3411
itional	-3412
▁losses	-3413
▁opened	-3414
ten	-3415
anted	-3416
uries	-3417
coming	-3418
▁road	-3419
lywood	-3420
▁front	-3421
▁given	-3422
▁though	-3423
▁spokesman	-3424
yc	-3425
▁Strip	-3426
▁create	-3427
rac	-3428
iplom	-3429
▁prop	-3430
▁role	-3431
ightly	-3432
▁lim	-3433
wards	-3434
▁Super	-3435
▁project	-3436
Can	-3437
ilty	-3438
▁cou	-3439
▁Ford	-3440
▁Health	-3441
▁station	-3442
oma	-3443
▁Bob	-3444
uting	-3445
▁Econom	-3446
▁winter	-3447
ockey	-3448
eather	-3449
▁division	-3450
▁NHL	-3451
atory	-3452
inger	-3453
orney	-3454
▁Feder	-3455
▁comes	-3456
bn	-3457
eath	-3458
▁Gen	-3459
▁July	-3460
▁Mass	-3461
▁dest	-3462
▁Philipp	-3463
▁Field	-3464
▁wounded	-3465
▁Ber	-3466
▁tournament	-3467
IM	-3468
ences	-3469
▁based	-3470
▁staff	-3471
ids	-3472
▁avoid	-3473
▁improv	-3474
▁terrorism	-3475
uled	-3476
▁unc	-3477
▁Major	-3478
▁carry	-3479
▁partners	-3480
▁Democratic	-3481
▁Shi	-3482
iring	-3483
▁pros	-3484
▁Labor	-3485
▁autom	-3486
▁Chelsea	-3487
▁browser	-3488
▁militant	-3489
▁Cardinals	-3490
NA	-3491
ford	-3492
▁Atlanta	-3493
-7	-3494
ires	-3495
lish	-3496
▁pri	-3497
ittee	-3498
strong	-3499
▁purch	-3500
▁forward	-3501
CBS	-3502
enez	-3503
▁Dev	-3504
▁Star	-3505
▁drugs	-3506
▁single	-3507
▁Deb	-3508
▁Reds	-3509
▁researchers	-3510
▁Pit	-3511
tainment	-3512
▁Technology	-3513
▁ID	-3514
ajaf	-3515
▁tot	-3516
▁didn	-3517
▁Virginia	-3518
west	-3519
assic	-3520
NY	-3521
ova	-3522
▁Vo	-3523
▁Rog	-3524
▁able	-3525
elling	-3526
▁Patri	-3527
▁overs	-3528
▁signs	-3529
▁Market	-3530
AK	-3531
ada	-3532
play	-3533
▁Crude	-3534
▁Howard	-3535
▁serious	-3536
30	-3537
▁wid	-3538
▁Kn	-3539
▁commercial	-3540
read	-3541
▁Near	-3542
▁decl	-3543
▁joint	-3544
▁storage	-3545
▁Baseball	-3546
▁basketball	-3547
unk	-3548
yle	-3549
ealand	-3550
▁Najaf	-3551
▁faces	-3552
▁fifth	-3553
▁credit	-3554
▁Spanish	-3555
OU	-3556
LAN	-3557
epend	-3558
▁surv	-3559
▁streak	-3560
eg	-3561
igns	-3562
▁Tiger	-3563
▁Sant	-3564
▁experts	-3565
wa	-3566
vet	-3567
▁sex	-3568
▁Home	-3569
atform	-3570
▁compl	-3571
▁estim	-3572
▁south	-3573
▁initial	-3574
▁minutes	-3575
kn	-3576
than	-3577
ICAGO	-3578
iller	-3579
▁networks	-3580
GA	-3581
cc	-3582
ager	-3583
igan	-3584
▁Saf	-3585
ental	-3586
ijing	-3587
▁played	-3588
▁Scientists	-3589
▁ton	-3590
▁clin	-3591
Factor	-3592
▁critic	-3593
▁January	-3594
▁Sk	-3595
▁Count	-3596
▁quick	-3597
lection	-3598
▁Office	-3599
▁losing	-3600
▁CHICAGO	-3601
mas	-3602
▁Karz	-3603
▁check	-3604
▁woman	-3605
▁Powell	-3606
▁Record	-3607
ival	-3608
▁pan	-3609
ellig	-3610
▁Company	-3611
▁distrib	-3612
.9	-3613
eda	-3614
pro	-3615
onto	-3616
▁Nort	-3617
▁Carol	-3618
▁Oh	-3619
▁Mars	-3620
▁mach	-3621
▁meas	-3622
▁Nextel	-3623
▁q	-3624
▁alleg	-3625
▁started	-3626
▁prosecut	-3627
▁Hollywood	-3628
war	-3629
pres	-3630
▁SEC	-3631
▁aud	-3632
▁ruled	-3633
bed	-3634
▁Karzai	-3635
▁rocket	-3636
▁Beijing	-3637
▁Supreme	-3638
gage	-3639
acked	-3640
▁boss	-3641
▁Korean	-3642
▁Mexico	-3643
▁advert	-3644
▁forced	-3645
ALL	-3646
One	-3647
oles	-3648
▁Dod	-3649
ville	-3650
▁north	-3651
▁Toronto	-3652
▁Arg	-3653
▁Eag	-3654
▁homes	-3655
▁vehic	-3656
▁inning	-3657
▁island	-3658
▁review	-3659
adelphia	-3660
▁holding	-3661
▁protect	-3662
▁proposed	-3663
▁offensive	-3664
▁statement	-3665
.\	-3666
▁ty	-3667
ever	-3668
▁cho	-3669
▁Host	-3670
▁wild	-3671
▁looks	-3672
▁acquire	-3673
▁fri	-3674
▁Fund	-3675
▁whose	-3676
ead	-3677
▁art	-3678
▁mom	-3679
istic	-3680
▁Senate	-3681
▁debate	-3682
▁increasing	-3683
▁san	-3684
▁sit	-3685
▁Stew	-3686
angers	-3687
▁blood	-3688
▁shoot	-3689
▁Turkey	-3690
iot	-3691
aeda	-3692
▁Div	-3693
▁\$50	-3694
▁officer	-3695
▁sources	-3696
▁evidence	-3697
▁Philadelphia	-3698
▁cam	-3699
orrow	-3700
▁Bonds	-3701
▁guard	-3702
▁average	-3703
ength	-3704
▁playing	-3705
▁Sum	-3706
▁witness	-3707
▁accounting	-3708
assy	-3709
ster	-3710
▁Get	-3711
▁roll	-3712
▁Irish	-3713
▁leaving	-3714
▁western	-3715
NN	-3716
omin	-3717
▁Reg	-3718
▁ren	-3719
▁sett	-3720
ighest	-3721
AA	-3722
▁Low	-3723
aming	-3724
▁Server	-3725
▁Stewart	-3726
▁rejected	-3727
dog	-3728
▁Im	-3729
▁Grow	-3730
onduct	-3731
▁became	-3732
▁hundreds	-3733
▁returned	-3734
▁acquisition	-3735
iar	-3736
▁Nets	-3737
▁reform	-3738
▁building	-3739
▁successful	-3740
irl	-3741
▁\$8	-3742
▁debut	-3743
▁doesn	-3744
▁seeking	-3745
▁threatened	-3746
ko	-3747
fox	-3748
▁Ariz	-3749
▁bus	-3750
▁food	-3751
makers	-3752
▁crash	-3753
icon	-3754
▁Bry	-3755
▁read	-3756
▁remains	-3757
Fi	-3758
▁ast	-3759
▁our	-3760
adian	-3761
▁suspended	-3762
net	-3763
ulf	-3764
▁non	-3765
▁Alex	-3766
▁tight	-3767
▁having	-3768
▁offered	-3769
▁kidnapped	-3770
ati	-3771
inn	-3772
▁iT	-3773
▁tem	-3774
▁reason	-3775
iest	-3776
▁gen	-3777
ipping	-3778
Canadian	-3779
▁Ukraine	-3780
▁dropped	-3781
▁scandal	-3782
▁OS	-3783
▁Mem	-3784
▁huge	-3785
astern	-3786
▁James	-3787
▁earth	-3788
▁Masters	-3789
iny	-3790
▁29	-3791
ansas	-3792
▁Warner	-3793
medi	-3794
▁Nor	-3795
ients	-3796
▁deep	-3797
▁confl	-3798
▁medical	-3799
▁hostages	-3800
serv	-3801
▁MSN	-3802
▁film	-3803
▁Found	-3804
▁cleric	-3805
enture	-3806
▁raise	-3807
▁iTunes	-3808
▁troubl	-3809
uz	-3810
self	-3811
▁Cut	-3812
▁beating	-3813
▁provider	-3814
▁challenge	-3815
IE	-3816
▁Cy	-3817
▁MP	-3818
riel	-3819
▁His	-3820
yware	-3821
▁\$10	-3822
▁ship	-3823
▁Media	-3824
▁device	-3825
▁parliament	-3826
▁CA	-3827
▁Dou	-3828
▁Sir	-3829
lined	-3830
▁Jets	-3831
▁very	-3832
ranked	-3833
though	-3834
▁plant	-3835
▁content	-3836
▁Den	-3837
▁Ext	-3838
▁code	-3839
▁fear	-3840
▁vend	-3841
▁Party	-3842
▁Firefox	-3843
▁dispute	-3844
▁interim	-3845
▁Election	-3846
ma	-3847
ux	-3848
ari	-3849
augh	-3850
▁Oak	-3851
▁winner	-3852
▁Despite	-3853
▁Carolina	-3854
▁Patriots	-3855
▁Ut	-3856
gery	-3857
house	-3858
▁agree	-3859
▁crowd	-3860
▁stage	-3861
▁continues	-3862
▁35	-3863
come	-3864
▁rob	-3865
▁Ever	-3866
source	-3867
▁safety	-3868
▁carrier	-3869
acec	-3870
▁Die	-3871
▁LOS	-3872
▁PCs	-3873
iders	-3874
▁save	-3875
▁plane	-3876
▁repres	-3877
▁Central	-3878
▁thought	-3879
▁internet	-3880
▁supplies	-3881
CS	-3882
ATO	-3883
chen	-3884
▁decline	-3885
elligence	-3886
▁Conference	-3887
urer	-3888
▁Hit	-3889
olphins	-3890
▁retire	-3891
▁soccer	-3892
▁Michigan	-3893
▁director	-3894
▁\	-3895
▁ANG	-3896
▁\$7	-3897
ented	-3898
▁Trop	-3899
ificant	-3900
▁Eagles	-3901
▁course	-3902
▁counter	-3903
▁lic	-3904
▁occ	-3905
urder	-3906
▁Camp	-3907
▁goes	-3908
ograph	-3909
▁result	-3910
▁futures	-3911
▁millions	-3912
▁confidence	-3913
TER	-3914
aut	-3915
▁BR	-3916
idel	-3917
▁fly	-3918
pping	-3919
▁Beat	-3920
▁Ohio	-3921
▁What	-3922
▁wanted	-3923
acecraft	-3924
▁deficit	-3925
▁Services	-3926
▁z	-3927
ris	-3928
▁Av	-3929
here	-3930
imin	-3931
▁Dan	-3932
▁doz	-3933
thing	-3934
▁Saud	-3935
▁send	-3936
▁total	-3937
ELES	-3938
endo	-3939
▁Are	-3940
▁Mets	-3941
▁pace	-3942
▁prof	-3943
▁Peace	-3944
▁diplom	-3945
▁changes	-3946
▁Christmas	-3947
▁explosion	-3948
,\	-3949
udd	-3950
oned	-3951
▁enc	-3952
▁rain	-3953
▁ANGELES	-3954
▁proposal	-3955
oud	-3956
▁Abu	-3957
▁Ram	-3958
itors	-3959
light	-3960
ailand	-3961
▁closed	-3962
▁ending	-3963
ado	-3964
alo	-3965
▁er	-3966
▁fun	-3967
iling	-3968
▁pain	-3969
▁comple	-3970
▁Official	-3971
▁consecutive	-3972
.&	-3973
▁31	-3974
tery	-3975
▁Nik	-3976
▁climb	-3977
▁application	-3978
larg	-3979
point	-3980
▁Last	-3981
▁Ariel	-3982
▁astron	-3983
▁states	-3984
▁recently	-3985
lad	-3986
reek	-3987
▁AOL	-3988
▁Prix	-3989
▁pled	-3990
idents	-3991
▁Higher	-3992
▁brought	-3993
▁expects	-3994
▁Thailand	-3995
▁Jeff	-3996
▁kept	-3997
▁walk	-3998
▁Haiti	-3999
▁Merck	-4000
▁Times	-4001
▁award	-4002
▁chain	-4003
▁Agency	-4004
▁design	-4005
▁Nigeria	-4006
▁6-4	-4007
▁Rel	-4008
oping	-4009
▁Jean	-4010
▁Defense	-4011
▁Ok	-4012
▁Against	-4013
▁sil	-4014
isl	-4015
▁wa	-4016
noon	-4017
▁bit	-4018
ority	-4019
▁illegal	-4020
▁aircraft	-4021
OO	-4022
▁OP	-4023
▁Enron	-4024
enezuel	-4025
▁servers	-4026
▁sharply	-4027
▁settlement	-4028
▁electronics	-4029
alm	-4030
▁Er	-4031
unch	-4032
▁Prod	-4033
▁arch	-4034
▁lawy	-4035
encies	-4036
▁summer	-4037
▁slightly	-4038
▁scheduled	-4039
FA	-4040
iod	-4041
hing	-4042
verd	-4043
itzer	-4044
▁Case	-4045
▁problem	-4046
,"	-4047
-8	-4048
▁my	-4049
igning	-4050
▁border	-4051
▁sending	-4052
▁Republic	-4053
izon	-4054
▁Gar	-4055
▁urg	-4056
apore	-4057
▁Palm	-4058
▁subs	-4059
▁concern	-4060
▁nations	-4061
▁Venezuel	-4062
▁Government	-4063
▁commission	-4064
14	-4065
estic	-4066
▁Susp	-4067
▁below	-4068
▁guilty	-4069
▁Cit	-4070
onstr	-4071
udget	-4072
▁kick	-4073
▁features	-4074
▁Way	-4075
▁bas	-4076
heast	-4077
▁Carl	-4078
▁range	-4079
▁citing	-4080
▁commit	-4081
ray	-4082
▁Ur	-4083
▁Und	-4084
▁cur	-4085
▁Mush	-4086
▁coal	-4087
▁finance	-4088
▁sanctions	-4089
GH	-4090
oul	-4091
▁dep	-4092
▁Ivory	-4093
▁Radio	-4094
▁memory	-4095
▁certain	-4096
▁terrorist	-4097
cel	-4098
force	-4099
▁Sans	-4100
▁poor	-4101
▁sets	-4102
▁immedi	-4103
▁issued	-4104
▁platform	-4105
;.	-4106
bur	-4107
News	-4108
oses	-4109
▁esc	-4110
▁Free	-4111
▁copy	-4112
▁Jav	-4113
▁Year	-4114
▁room	-4115
▁Angels	-4116
▁Motors	-4117
▁Stores	-4118
▁longer	-4119
▁highest	-4120
▁Pakistani	-4121
▁Securities	-4122
Bay	-4123
high	-4124
▁flu	-4125
▁Loss	-4126
▁conc	-4127
▁Georg	-4128
▁Hamas	-4129
▁Saudi	-4130
▁striker	-4131
ara	-4132
▁Hus	-4133
▁young	-4134
▁sports	-4135
▁Arizona	-4136
▁Classic	-4137
▁60	-4138
▁IS	-4139
rees	-4140
▁und	-4141
ansion	-4142
▁needs	-4143
▁Martin	-4144
▁himself	-4145
ags	-4146
inet	-4147
arial	-4148
▁moon	-4149
▁While	-4150
▁Novell	-4151
12	-4152
▁desc	-4153
▁Steel	-4154
▁labor	-4155
▁threw	-4156
▁sector	-4157
iconduct	-4158
▁Southern	-4159
▁rad	-4160
▁Dead	-4161
▁blow	-4162
iation	-4163
▁Airbus	-4164
▁update	-4165
▁Formula	-4166
▁important	-4167
▁newspaper	-4168
roll	-4169
▁vac	-4170
▁wel	-4171
▁Cubs	-4172
▁Jobs	-4173
earing	-4174
▁buying	-4175
▁inflation	-4176
▁published	-4177
-2"	-4178
="#	-4179
rag	-4180
▁1-	-4181
66"&	-4182
▁Lab	-4183
▁ran	-4184
="-2"	-4185
arraf	-4186
▁Take	-4187
▁wind	-4188
helvet	-4189
▁Serif	-4190
="#6666	-4191
verdana	-4192
▁caused	-4193
▁journal	-4194
helvetica	-4195
▁afternoon	-4196
="#666666"&	-4197
▁SE	-4198
idge	-4199
scri	-4200
▁saw	-4201
ething	-4202
▁cover	-4203
▁sweep	-4204
▁tough	-4205
▁figures	-4206
-9	-4207
oxx	-4208
▁OK	-4209
enced	-4210
▁Cost	-4211
▁circ	-4212
ustrial	-4213
▁struck	-4214
;-	-4215
Ch	-4216
tr	-4217
urers	-4218
▁tools	-4219
ublican	-4220
▁tonight	-4221
▁Musharraf	-4222
▁candidate	-4223
▁GM	-4224
▁Of	-4225
▁ap	-4226
▁vs	-4227
inds	-4228
▁crim	-4229
▁toll	-4230
▁Marsh	-4231
▁moves	-4232
▁invent	-4233
▁developed	-4234
▁Swed	-4235
▁Study	-4236
▁explod	-4237
▁hostile	-4238
▁Financial	-4239
▁significant	-4240
oric	-4241
omber	-4242
▁Liver	-4243
▁Vioxx	-4244
▁gives	-4245
ingular	-4246
▁voters	-4247
▁Oakland	-4248
con	-4249
angu	-4250
▁wat	-4251
stand	-4252
▁itself	-4253
▁request	-4254
▁weather	-4255
ORON	-4256
▁IPO	-4257
ikely	-4258
lands	-4259
overs	-4260
▁sees	-4261
ration	-4262
▁these	-4263
▁Argent	-4264
▁Middle	-4265
▁80	-4266
mers	-4267
▁400	-4268
▁needed	-4269
▁express	-4270
aily	-4271
▁Nint	-4272
▁flaw	-4273
▁tech	-4274
▁Trans	-4275
▁favor	-4276
kei	-4277
▁Expos	-4278
▁owners	-4279
▁reduce	-4280
▁Dolphins	-4281
▁revealed	-4282
▁spacecraft	-4283
▁negotiations	-4284
yard	-4285
▁Dame	-4286
▁King	-4287
ORONTO	-4288
▁Greek	-4289
▁Notre	-4290
▁Kansas	-4291
▁Nikkei	-4292
▁decades	-4293
▁innings	-4294
▁Nintendo	-4295
fect	-4296
▁Act	-4297
▁Ben	-4298
uation	-4299
▁creat	-4300
▁deploy	-4301
inisters	-4302
orer	-4303
pool	-4304
▁box	-4305
mitted	-4306
▁TORONTO	-4307
▁Cingular	-4308
BER	-4309
▁Sn	-4310
lett	-4311
▁Cam	-4312
▁lay	-4313
jects	-4314
▁Greens	-4315
▁respons	-4316
▁uranium	-4317
▁conflict	-4318
▁planning	-4319
▁Singapore	-4320
▁broadband	-4321
▁insurgents	-4322
▁controversial	-4323
RA	-4324
-10	-4325
cep	-4326
cow	-4327
▁Ky	-4328
▁Ow	-4329
▁lab	-4330
▁Targ	-4331
▁Thom	-4332
▁Smith	-4333
▁pilots	-4334
▁missile	-4335
▁Northern	-4336
▁training	-4337
▁interview	-4338
▁Republican	-4339
alv	-4340
▁Ra	-4341
▁rule	-4342
▁song	-4343
▁freed	-4344
▁funds	-4345
▁seeks	-4346
20	-4347
ORE	-4348
▁tie	-4349
▁Kong	-4350
▁movie	-4351
▁operator	-4352
▁programs	-4353
adesh	-4354
gress	-4355
▁banks	-4356
▁built	-4357
▁class	-4358
▁Malays	-4359
▁murder	-4360
▁launches	-4361
▁shareholders	-4362
▁Moz	-4363
addam	-4364
inary	-4365
▁easy	-4366
▁hurt	-4367
gether	-4368
▁Engine	-4369
▁together	-4370
▁questions	-4371
▁touchdowns	-4372
ki	-4373
▁Okl	-4374
▁Vict	-4375
▁Leban	-4376
▁goals	-4377
▁worst	-4378
▁period	-4379
▁subsid	-4380
▁bombing	-4381
▁environment	-4382
▁Hot	-4383
▁OPEC	-4384
▁tack	-4385
▁files	-4386
▁integr	-4387
▁makers	-4388
▁practice	-4389
▁shopping	-4390
▁NL	-4391
imir	-4392
▁Fla	-4393
▁Imp	-4394
▁mis	-4395
isted	-4396
▁Celt	-4397
veland	-4398
▁techn	-4399
▁Justice	-4400
urricanes	-4401
▁(\$	-4402
going	-4403
▁Chen	-4404
▁broker	-4405
▁pulled	-4406
▁Rangers	-4407
▁appeared	-4408
▁progress	-4409
▁protection	-4410
):	-4411
500	-4412
oteb	-4413
iscal	-4414
▁relations	-4415
ffic	-4416
▁Bat	-4417
▁Drop	-4418
▁Kills	-4419
▁Start	-4420
▁parts	-4421
▁dismiss	-4422
▁helping	-4423
ification	-4424
▁Earnings	-4425
▁strategy	-4426
▁Cleveland	-4427
▁Dow	-4428
▁Jim	-4429
▁Tri	-4430
▁wide	-4431
▁Saddam	-4432
▁member	-4433
▁Federer	-4434
▁introduced	-4435
ery	-4436
▁PAR	-4437
▁Tos	-4438
illed	-4439
ladimir	-4440
▁Moscow	-4441
▁Chairman	-4442
iconductor	-4443
▁Liverpool	-4444
▁49	-4445
ucks	-4446
▁Gets	-4447
▁Step	-4448
▁book	-4449
▁About	-4450
▁spent	-4451
▁recovery	-4452
ifts	-4453
backs	-4454
▁resol	-4455
largest	-4456
▁Bryant	-4457
rig	-4458
▁Abb	-4459
merce	-4460
▁lear	-4461
▁Plans	-4462
▁secure	-4463
▁Consumer	-4464
AB	-4465
▁Kh	-4466
owers	-4467
▁Dall	-4468
▁Utah	-4469
ounded	-4470
▁Scott	-4471
▁independ	-4472
▁different	-4473
icult	-4474
izing	-4475
▁2000	-4476
▁Amaz	-4477
▁Energy	-4478
▁showing	-4479
ror	-4480
reed	-4481
ennis	-4482
▁insp	-4483
▁surpr	-4484
▁moment	-4485
▁Dodgers	-4486
▁download	-4487
▁enterprise	-4488
▁Vol	-4489
▁yen	-4490
ounts	-4491
venth	-4492
▁Into	-4493
action	-4494
ancing	-4495
▁Video	-4496
▁prosp	-4497
▁Colomb	-4498
▁Develop	-4499
▁arrived	-4500
week	-4501
▁Bur	-4502
▁Mag	-4503
▁Nob	-4504
ulner	-4505
▁Pent	-4506
agement	-4507
▁passed	-4508
▁passes	-4509
▁Vladimir	-4510
▁processor	-4511
ques	-4512
▁Fer	-4513
annie	-4514
▁Annan	-4515
▁warns	-4516
▁damage	-4517
▁decade	-4518
▁surgery	-4519
▁operation	-4520
bs	-4521
uke	-4522
▁Os	-4523
▁Ron	-4524
▁exc	-4525
▁fix	-4526
▁why	-4527
ements	-4528
▁Jason	-4529
▁broke	-4530
▁terms	-4531
▁Iraqis	-4532
▁Verizon	-4533
▁auction	-4534
▁targets	-4535
▁extended	-4536
▁producer	-4537
▁satellite	-4538
▁batt	-4539
▁owner	-4540
▁sport	-4541
▁calling	-4542
▁approval	-4543
uted	-4544
▁Beck	-4545
▁Hong	-4546
▁lock	-4547
▁Bangl	-4548
▁catch	-4549
▁jail	-4550
▁Color	-4551
▁things	-4552
▁assault	-4553
▁cricket	-4554
▁worries	-4555
▁Division	-4556
ighb	-4557
▁MOS	-4558
▁arg	-4559
▁Mount	-4560
ensions	-4561
▁Amazon	-4562
▁ordered	-4563
▁.	-4564
emb	-4565
rad	-4566
▁Old	-4567
▁isn	-4568
ranch	-4569
▁Club	-4570
▁surf	-4571
▁Growth	-4572
▁Retail	-4573
▁Sports	-4574
▁English	-4575
▁massive	-4576
▁seconds	-4577
▁probably	-4578
▁Bangladesh	-4579
NYSE	-4580
fire	-4581
▁Lib	-4582
▁Six	-4583
▁sharp	-4584
poration	-4585
▁NC	-4586
▁Ill	-4587
▁Mary	-4588
▁lose	-4589
▁phot	-4590
utions	-4591
▁Roger	-4592
▁Storm	-4593
▁Dallas	-4594
▁gather	-4595
▁College	-4596
▁believe	-4597
LIN	-4598
ried	-4599
▁Sam	-4600
ality	-4601
▁Balt	-4602
▁Cuts	-4603
▁Scot	-4604
▁Stand	-4605
▁refug	-4606
▁Fannie	-4607
▁domestic	-4608
▁remained	-4609
▁Microsystems	-4610
▁Technologies	-4611
ios	-4612
▁cas	-4613
▁pit	-4614
burgh	-4615
▁Good	-4616
▁crew	-4617
itrust	-4618
▁coast	-4619
▁Desktop	-4620
▁surprise	-4621
▁advertising	-4622
VER	-4623
phoon	-4624
▁pict	-4625
▁prep	-4626
▁wrong	-4627
▁legisl	-4628
▁relief	-4629
▁something	-4630
igers	-4631
▁pair	-4632
▁rank	-4633
Nasdaq	-4634
▁Coach	-4635
▁train	-4636
▁virus	-4637
▁Western	-4638
▁500	-4639
▁Lat	-4640
▁Disc	-4641
▁Food	-4642
▁2004.	-4643
▁Price	-4644
▁Under	-4645
aterial	-4646
▁hoping	-4647
▁impact	-4648
computer	-4649
essional	-4650
▁troubled	-4651
▁beginning	-4652
▁Cra	-4653
break	-4654
▁Ball	-4655
▁Lank	-4656
ackard	-4657
amsung	-4658
▁Frank	-4659
▁extra	-4660
▁Hewlett	-4661
▁positive	-4662
box	-4663
hiba	-4664
▁black	-4665
▁prevent	-4666
▁2-0	-4667
▁Bid	-4668
▁Gun	-4669
▁Cell	-4670
▁blue	-4671
abinet	-4672
▁Broad	-4673
▁Force	-4674
▁delay	-4675
▁democr	-4676
▁complete	-4677
▁disappoin	-4678
▁represent	-4679
▁Indonesian	-4680
BI	-4681
CH	-4682
JA	-4683
rain	-4684
▁arm	-4685
iment	-4686
▁Conn	-4687
▁Sees	-4688
▁Fight	-4689
▁Roman	-4690
▁cause	-4691
▁Samsung	-4692
▁earthqu	-4693
▁discovered	-4694
au	-4695
eling	-4696
▁Euro	-4697
▁Week	-4698
▁brok	-4699
isions	-4700
▁Sudanese	-4701
▁standard	-4702
▁ST	-4703
eals	-4704
ease	-4705
heim	-4706
▁Inf	-4707
▁replace	-4708
▁Greenspan	-4709
inh	-4710
▁64	-4711
erem	-4712
oura	-4713
▁Vik	-4714
▁Hits	-4715
▁Jose	-4716
▁flat	-4717
▁knee	-4718
▁Board	-4719
▁athlet	-4720
▁output	-4721
▁Million	-4722
▁falling	-4723
▁shr	-4724
ahoma	-4725
▁Bell	-4726
onents	-4727
▁Jacks	-4728
▁common	-4729
▁danger	-4730
▁Express	-4731
▁address	-4732
▁subscri	-4733
▁wounding	-4734
▁Cal	-4735
▁ide	-4736
arian	-4737
▁Colin	-4738
▁indic	-4739
▁Hewitt	-4740
▁fiscal	-4741
▁Jackson	-4742
▁Quarter	-4743
edd	-4744
odies	-4745
▁Look	-4746
▁base	-4747
▁done	-4748
istance	-4749
▁Toshiba	-4750
▁demands	-4751
▁Oklahoma	-4752
lew	-4753
oor	-4754
▁IM	-4755
▁amb	-4756
ature	-4757
usted	-4758
▁2002	-4759
▁Gulf	-4760
▁pers	-4761
▁trip	-4762
arters	-4763
▁Lower	-4764
▁promp	-4765
▁tried	-4766
▁commun	-4767
▁Mozilla	-4768
▁exploded	-4769
▁lawsuits	-4770
ums	-4771
dick	-4772
▁Has	-4773
▁Rele	-4774
▁Still	-4775
▁facing	-4776
▁finish	-4777
▁Another	-4778
▁Georgia	-4779
▁appears	-4780
▁Industry	-4781
▁deadline	-4782
▁struggling	-4783
omic	-4784
▁Sem	-4785
ighth	-4786
▁paid	-4787
▁suit	-4788
▁Death	-4789
▁Posts	-4790
▁Rises	-4791
Packard	-4792
ization	-4793
▁Colorado	-4794
▁Explorer	-4795
WA	-4796
▁NY	-4797
awks	-4798
mart	-4799
▁Nep	-4800
imbab	-4801
▁resc	-4802
finals	-4803
▁cross	-4804
▁score	-4805
richment	-4806
▁session	-4807
DAY	-4808
▁AG	-4809
▁hun	-4810
otion	-4811
▁marketing	-4812
▁worldwide	-4813
ht	-4814
te	-4815
bes	-4816
▁boy	-4817
gency	-4818
▁cool	-4819
atings	-4820
▁Pitts	-4821
▁spark	-4822
imbabwe	-4823
▁Roddick	-4824
▁college	-4825
▁details	-4826
▁venture	-4827
▁Treasury	-4828
ION	-4829
▁Ey	-4830
rive	-4831
elves	-4832
ocial	-4833
▁adop	-4834
▁highs	-4835
▁surge	-4836
▁Digital	-4837
▁Manning	-4838
▁allowed	-4839
▁pension	-4840
▁approach	-4841
▁Executive	-4842
▁developing	-4843
CAR	-4844
real	-4845
▁Emb	-4846
▁Hat	-4847
▁Sri	-4848
athon	-4849
▁arms	-4850
▁watchdog	-4851
▁announcement	-4852
▁intelligence	-4853
oke	-4854
▁Rem	-4855
imore	-4856
night	-4857
▁Chall	-4858
▁deadly	-4859
▁neighb	-4860
▁message	-4861
▁Hom	-4862
▁lot	-4863
▁mut	-4864
▁Java	-4865
▁Most	-4866
▁green	-4867
▁veter	-4868
▁Premier	-4869
▁suffered	-4870
ued	-4871
World	-4872
acher	-4873
▁ties	-4874
▁MOSCO	-4875
▁bombs	-4876
▁Braves	-4877
▁Terror	-4878
▁filing	-4879
▁moving	-4880
▁Percent	-4881
1,	-4882
awn	-4883
▁Mae	-4884
▁unl	-4885
▁orig	-4886
▁image	-4887
▁renew	-4888
▁MOSCOW	-4889
▁pitcher	-4890
▁Baltimore	-4891
▁34	-4892
▁Si	-4893
▁PARIS	-4894
▁Networks	-4895
▁benefits	-4896
▁mortgage	-4897
▁telephone	-4898
ACE	-4899
inth	-4900
▁Matt	-4901
▁Vote	-4902
▁lack	-4903
▁stem	-4904
▁criminal	-4905
▁Jac	-4906
speed	-4907
▁Five	-4908
▁miles	-4909
▁Tigers	-4910
▁victims	-4911
DS	-4912
Mac	-4913
roke	-4914
▁10-	-4915
▁Art	-4916
▁deter	-4917
▁Saturn	-4918
▁Threat	-4919
▁Pittsburgh	-4920
ni	-4921
gen	-4922
not	-4923
▁rap	-4924
ecial	-4925
eline	-4926
▁Keep	-4927
▁answ	-4928
▁optim	-4929
▁Outlook	-4930
▁Tenness	-4931
▁Corporation	-4932
▁allegations	-4933
eman	-4934
▁scr	-4935
avens	-4936
ucial	-4937
▁Bern	-4938
▁Turk	-4939
▁Judge	-4940
▁twice	-4941
▁flights	-4942
▁threats	-4943
▁becoming	-4944
UM	-4945
ao	-4946
▁1:	-4947
atab	-4948
half	-4949
▁Rad	-4950
▁tom	-4951
▁Diego	-4952
▁cable	-4953
▁inside	-4954
▁resign	-4955
▁vulner	-4956
▁numbers	-4957
▁species	-4958
▁restruct	-4959
▁ministers	-4960
CL	-4961
ias	-4962
tha	-4963
erty	-4964
mant	-4965
▁\$6	-4966
mselves	-4967
▁Trophy	-4968
▁soldier	-4969
▁6-3	-4970
board	-4971
ucted	-4972
▁girl	-4973
▁plot	-4974
▁soft	-4975
weight	-4976
▁Prize	-4977
▁crack	-4978
▁Falluja	-4979
▁seventh	-4980
▁Tennessee	-4981
▁reportedly	-4982
awa	-4983
news	-4984
eated	-4985
▁June	-4986
teroid	-4987
▁Micro	-4988
▁sixth	-4989
▁NASCAR	-4990
▁purchase	-4991
washington	-4992
▁Investors	-4993
▁resolution	-4994
washingtonpost	-4995
80	-4996
▁70	-4997
iled	-4998
▁Mov	-4999
▁Turn	-5000
▁names	-5001
▁attemp	-5002
▁Richard	-5003
fe	-5004
ami	-5005
ero	-5006
▁hy	-5007
keep	-5008
▁grew	-5009
▁hear	-5010
▁webs	-5011
▁orders	-5012
▁display	-5013
▁upgrade	-5014
▁themselves	-5015
reg	-5016
▁Bet	-5017
▁spl	-5018
enses	-5019
▁Penn	-5020
▁char	-5021
▁grand	-5022
▁polls	-5023
▁assets	-5024
▁scient	-5025
▁Frances	-5026
▁historic	-5027
▁community	-5028
▁Associates	-5029
communications	-5030
ET	-5031
cat	-5032
cri	-5033
▁var	-5034
▁areas	-5035
▁value	-5036
▁levels	-5037
▁traders	-5038
.-	-5039
yl	-5040
eded	-5041
▁Leg	-5042
▁Sim	-5043
▁Anti	-5044
▁Poll	-5045
▁Chile	-5046
▁lands	-5047
▁tests	-5048
▁Before	-5049
▁budget	-5050
▁univers	-5051
▁exchange	-5052
▁province	-5053
▁qualifying	-5054
1)	-5055
▁Rul	-5056
etary	-5057
ither	-5058
▁Syria	-5059
▁draft	-5060
▁Second	-5061
▁critical	-5062
▁estimates	-5063
11	-5064
oting	-5065
▁sure	-5066
▁Falls	-5067
istrict	-5068
ruption	-5069
▁secret	-5070
▁Station	-5071
▁handheld	-5072
▁Philippines	-5073
ius	-5074
▁Ped	-5075
arrow	-5076
▁hous	-5077
▁mean	-5078
▁1,000	-5079
▁Swiss	-5080
▁Killed	-5081
▁Leader	-5082
▁driver	-5083
▁middle	-5084
▁airport	-5085
oph	-5086
ctic	-5087
▁McL	-5088
▁Cuba	-5089
▁prem	-5090
atural	-5091
▁Wales	-5092
▁shift	-5093
▁Allawi	-5094
▁patent	-5095
▁raising	-5096
za	-5097
fin	-5098
nam	-5099
▁Key	-5100
aries	-5101
ordan	-5102
otype	-5103
▁purs	-5104
▁panel	-5105
▁Pacers	-5106
▁begins	-5107
▁Beckham	-5108
▁related	-5109
▁advanced	-5110
esh	-5111
▁golf	-5112
▁quit	-5113
▁brief	-5114
▁upset	-5115
otebook	-5116
▁Robert	-5117
▁heating	-5118
▁regular	-5119
aur	-5120
ogn	-5121
▁Ev	-5122
rate	-5123
rick	-5124
▁bur	-5125
▁Call	-5126
▁Claim	-5127
▁hotel	-5128
▁Shiite	-5129
ifficult	-5130
▁offense	-5131
▁Holdings	-5132
▁Ministry	-5133
Th	-5134
can	-5135
▁ON	-5136
iced	-5137
▁Inj	-5138
gener	-5139
▁cars	-5140
▁Bears	-5141
▁kills	-5142
▁seems	-5143
▁story	-5144
▁accept	-5145
▁summit	-5146
▁instead	-5147
▁familiar	-5148
▁hurricane	-5149
▁unexpected	-5150
LC	-5151
anda	-5152
ulls	-5153
▁Ter	-5154
▁March	-5155
▁Twins	-5156
▁mount	-5157
▁Donald	-5158
▁opener	-5159
▁currency	-5160
▁completed	-5161
aze	-5162
lus	-5163
long	-5164
quir	-5165
▁6-2	-5166
anded	-5167
ument	-5168
▁Hamm	-5169
▁rall	-5170
▁Could	-5171
▁format	-5172
▁defensive	-5173
▁expansion	-5174
▁Associated	-5175
ione	-5176
olis	-5177
▁Conf	-5178
▁foot	-5179
tering	-5180
▁really	-5181
▁fastest	-5182
▁finished	-5183
IJ	-5184
RO	-5185
200	-5186
aks	-5187
▁33	-5188
sein	-5189
▁Say	-5190
▁upd	-5191
erate	-5192
▁virt	-5193
▁ninth	-5194
▁Martha	-5195
▁PGA	-5196
acity	-5197
▁Life	-5198
▁ends	-5199
▁Royal	-5200
▁thing	-5201
▁School	-5202
▁strength	-5203
▁students	-5204
▁tomorrow	-5205
▁Committee	-5206
▁antitrust	-5207
▁treatment	-5208
eas	-5209
engt	-5210
omen	-5211
▁McC	-5212
▁Golf	-5213
iction	-5214
▁Titan	-5215
▁often	-5216
▁Indiana	-5217
▁Pacific	-5218
▁climate	-5219
▁collect	-5220
▁exports	-5221
▁package	-5222
lan	-5223
uble	-5224
azine	-5225
▁lines	-5226
overnor	-5227
▁tennis	-5228
▁Charles	-5229
▁prepared	-5230
▁forecasts	-5231
ITY	-5232
▁Hug	-5233
▁Lad	-5234
▁Chip	-5235
aining	-5236
▁voted	-5237
▁Jordan	-5238
▁Nortel	-5239
▁headed	-5240
▁looked	-5241
▁Redskins	-5242
▁challeng	-5243
oom	-5244
pre	-5245
▁Seen	-5246
apping	-5247
▁clash	-5248
▁entire	-5249
▁demonstr	-5250
▁schedule	-5251
▁industrial	-5252
LO	-5253
PC	-5254
TH	-5255
icop	-5256
ivity	-5257
antage	-5258
▁Barry	-5259
▁refer	-5260
▁denied	-5261
▁organiz	-5262
struction	-5263
▁witnesses	-5264
clus	-5265
inez	-5266
ique	-5267
ivid	-5268
onse	-5269
▁Dam	-5270
▁Wil	-5271
▁hor	-5272
▁via	-5273
elled	-5274
▁index	-5275
▁income	-5276
▁joined	-5277
▁matter	-5278
▁crucial	-5279
▁nothing	-5280
▁testing	-5281
portunity	-5282
▁previously	-5283
bury	-5284
izer	-5285
▁Bron	-5286
▁ring	-5287
ickets	-5288
▁Craig	-5289
▁Gates	-5290
▁Liber	-5291
▁semif	-5292
▁bought	-5293
▁warming	-5294
abilities	-5295
▁Martinez	-5296
▁residents	-5297
TC	-5298
▁cy	-5299
▁hon	-5300
helps	-5301
▁Alan	-5302
▁dram	-5303
▁live	-5304
▁stun	-5305
▁accep	-5306
▁Ravens	-5307
▁voting	-5308
▁created	-5309
▁eastern	-5310
stitution	-5311
▁Nigerian	-5312
▁manufacturing	-5313
UN	-5314
▁3-	-5315
▁Az	-5316
ALEM	-5317
odaf	-5318
▁1-0	-5319
▁Rev	-5320
▁jud	-5321
ously	-5322
▁Andy	-5323
▁Rand	-5324
▁date	-5325
▁Lines	-5326
▁extend	-5327
▁faster	-5328
▁missed	-5329
▁thanks	-5330
▁bringing	-5331
▁copyright	-5332
▁partnership	-5333
▁32	-5334
▁SA	-5335
aris	-5336
▁Gra	-5337
▁SBC	-5338
▁Lanka	-5339
odafone	-5340
▁Phelps	-5341
▁allows	-5342
▁jumped	-5343
▁declared	-5344
▁considering	-5345
RM	-5346
aine	-5347
▁leads	-5348
▁model	-5349
▁System	-5350
▁recall	-5351
▁records	-5352
▁retailers	-5353
▁conditions	-5354
▁enrichment	-5355
bean	-5356
lean	-5357
umble	-5358
▁eyes	-5359
ATODAY	-5360
isting	-5361
▁Great	-5362
▁armed	-5363
▁cents	-5364
▁Return	-5365
▁Satellite	-5366
met	-5367
uan	-5368
▁2-	-5369
▁DS	-5370
aval	-5371
evin	-5372
▁300	-5373
iners	-5374
mates	-5375
▁Heat	-5376
▁Help	-5377
▁Mess	-5378
▁Pedro	-5379
▁stars	-5380
▁Turkish	-5381
▁include	-5382
▁difficult	-5383
▁documents	-5384
rys	-5385
iban	-5386
▁Mid	-5387
▁\$9	-5388
▁ill	-5389
▁seed	-5390
▁ways	-5391
▁Attack	-5392
▁closing	-5393
▁strengt	-5394
▁Attorney	-5395
▁Vodafone	-5396
▁Organization	-5397
ml	-5398
asc	-5399
ogs	-5400
▁2,	-5401
lers	-5402
olic	-5403
▁3-0	-5404
▁Run	-5405
▁spr	-5406
IJING	-5407
▁teen	-5408
▁Watch	-5409
▁homer	-5410
▁Bigley	-5411
▁resume	-5412
▁banking	-5413
▁options	-5414
▁quickly	-5415
▁customer	-5416
▁material	-5417
▁JER	-5418
▁Raid	-5419
▁halt	-5420
ushing	-5421
▁Chris	-5422
▁Qaeda	-5423
▁discl	-5424
▁doubt	-5425
▁decide	-5426
▁Hussein	-5427
▁disease	-5428
▁Argentina	-5429
▁electronic	-5430
eway	-5431
ocol	-5432
▁eye	-5433
▁thr	-5434
Ticker	-5435
igroup	-5436
▁Hamid	-5437
▁organ	-5438
▁Target	-5439
▁adding	-5440
▁eighth	-5441
icipated	-5442
▁BEIJING	-5443
▁setting	-5444
▁Scotland	-5445
▁computing	-5446
▁Electronics	-5447
hi	-5448
edia	-5449
hard	-5450
lins	-5451
▁Pack	-5452
▁cards	-5453
▁delayed	-5454
▁doctors	-5455
html	-5456
▁jet	-5457
▁Hard	-5458
USALEM	-5459
▁mixed	-5460
▁steps	-5461
▁Strong	-5462
▁option	-5463
▁involved	-5464
▁priority	-5465
▁JERUSALEM	-5466
▁Militants	-5467
Co	-5468
horn	-5469
▁Kod	-5470
apolis	-5471
beaten	-5472
▁Colts	-5473
▁Kevin	-5474
▁Probe	-5475
▁Rally	-5476
▁influ	-5477
▁Athlet	-5478
▁bodies	-5479
▁elimin	-5480
▁Cricket	-5481
▁Nuclear	-5482
▁Players	-5483
▁cutting	-5484
▁science	-5485
▁traffic	-5486
▁Schilling	-5487
▁apparently	-5488
ilar	-5489
▁son	-5490
▁wasn	-5491
▁Congo	-5492
atabase	-5493
▁crashed	-5494
▁returns	-5495
▁emergency	-5496
5,	-5497
bl	-5498
ky	-5499
ador	-5500
▁Lew	-5501
uburn	-5502
▁band	-5503
▁eBay	-5504
▁figh	-5505
porter	-5506
▁Phone	-5507
▁deals	-5508
▁initi	-5509
▁smart	-5510
▁linked	-5511
▁movies	-5512
▁Reports	-5513
▁changed	-5514
▁Steelers	-5515
▁carrying	-5516
iro	-5517
ught	-5518
▁Prop	-5519
▁Wrap	-5520
▁rare	-5521
errill	-5522
▁Takes	-5523
▁Today	-5524
▁Rooney	-5525
▁scores	-5526
generation	-5527
▁coalition	-5528
ibr	-5529
▁Jon	-5530
▁solid	-5531
▁believes	-5532
▁allegedly	-5533
▁activities	-5534
rd	-5535
aint	-5536
enty	-5537
▁Blu	-5538
▁Gov	-5539
▁Hop	-5540
oning	-5541
▁bott	-5542
fielder	-5543
▁cancer	-5544
▁boosted	-5545
▁Venezuela	-5546
▁candidates	-5547
ONG	-5548
▁2-1	-5549
▁Aid	-5550
▁tur	-5551
quiry	-5552
▁Show	-5553
▁puts	-5554
assini	-5555
▁friend	-5556
▁Billion	-5557
▁century	-5558
▁Montreal	-5559
▁generation	-5560
7,	-5561
ymn	-5562
▁fr	-5563
hill	-5564
▁Ana	-5565
▁Bus	-5566
rysler	-5567
▁Launch	-5568
▁Strike	-5569
▁Cassini	-5570
▁Taliban	-5571
▁advance	-5572
▁although	-5573
▁believed	-5574
▁receiver	-5575
▁preparing	-5576
▁Administration	-5577
rec	-5578
umn	-5579
arry	-5580
ibly	-5581
▁Laden	-5582
▁sought	-5583
▁independent	-5584
▁speculation	-5585
ein	-5586
▁Dr	-5587
ersey	-5588
▁Stan	-5589
▁wife	-5590
▁Rebels	-5591
▁Troops	-5592
▁includes	-5593
▁OT	-5594
▁Holl	-5595
▁Walk	-5596
castle	-5597
▁Auburn	-5598
▁Morgan	-5599
▁always	-5600
▁smaller	-5601
jan	-5602
▁II	-5603
izes	-5604
▁Vis	-5605
▁abd	-5606
▁cat	-5607
▁pun	-5608
▁Jagu	-5609
▁Meet	-5610
▁Lewis	-5611
▁Nobel	-5612
▁Seven	-5613
▁agent	-5614
▁begun	-5615
▁surged	-5616
▁hearing	-5617
▁activity	-5618
▁upcoming	-5619
▁Citigroup	-5620
▁ut	-5621
rawl	-5622
▁Joe	-5623
▁Tax	-5624
▁anim	-5625
▁flood	-5626
▁Packers	-5627
▁connect	-5628
Sp	-5629
ali	-5630
apse	-5631
iary	-5632
▁Jew	-5633
▁Sub	-5634
▁cit	-5635
▁Move	-5636
▁Your	-5637
▁buys	-5638
▁sens	-5639
▁Carlos	-5640
▁Motorola	-5641
▁admitted	-5642
60	-5643
PS	-5644
aver	-5645
▁mic	-5646
aceut	-5647
asion	-5648
▁aims	-5649
anging	-5650
▁Andre	-5651
▁Journal	-5652
▁turning	-5653
)--	-5654
ampa	-5655
irac	-5656
▁FOR	-5657
▁Sha	-5658
isher	-5659
stant	-5660
ubble	-5661
▁CITY	-5662
▁stre	-5663
▁Charl	-5664
▁Third	-5665
▁goods	-5666
▁spend	-5667
armaceut	-5668
heastern	-5669
▁Anaheim	-5670
▁entered	-5671
▁partner	-5672
▁managers	-5673
▁retirement	-5674
HI	-5675
zy	-5676
init	-5677
▁Gas	-5678
▁Her	-5679
▁age	-5680
▁Lions	-5681
million	-5682
▁Soccer	-5683
▁living	-5684
▁mutual	-5685
▁helicop	-5686
gic	-5687
esis	-5688
irth	-5689
room	-5690
▁Met	-5691
▁ens	-5692
▁log	-5693
racts	-5694
▁Hear	-5695
▁Jack	-5696
▁Spam	-5697
▁ease	-5698
▁mist	-5699
▁trib	-5700
▁vice	-5701
▁wait	-5702
iership	-5703
▁majority	-5704
▁Newcastle	-5705
▁broadcast	-5706
CE	-5707
▁90	-5708
osen	-5709
type	-5710
▁Cow	-5711
▁Els	-5712
▁Gat	-5713
▁Rap	-5714
▁uns	-5715
▁rook	-5716
attled	-5717
▁shock	-5718
▁Player	-5719
▁cities	-5720
▁declined	-5721
▁machines	-5722
▁41	-5723
ierce	-5724
place	-5725
ucing	-5726
▁rout	-5727
lement	-5728
▁#36;1	-5729
▁Adobe	-5730
▁Photo	-5731
▁embassy	-5732
▁Atlantic	-5733
▁improved	-5734
▁resigned	-5735
ils	-5736
▁Equ	-5737
▁mys	-5738
▁Auto	-5739
▁gone	-5740
▁scre	-5741
▁Speed	-5742
▁estab	-5743
finance	-5744
▁starts	-5745
▁unions	-5746
▁individ	-5747
▁Malaysia	-5748
▁confident	-5749
oe	-5750
hit	-5751
▁Que	-5752
▁Teh	-5753
▁Belg	-5754
▁text	-5755
incinn	-5756
▁2005,	-5757
▁books	-5758
▁patch	-5759
▁spect	-5760
▁steel	-5761
▁Author	-5762
▁Miller	-5763
▁behead	-5764
▁destro	-5765
▁remote	-5766
▁similar	-5767
incinnati	-5768
▁Launches	-5769
▁advantage	-5770
▁developer	-5771
▁immediately	-5772
▁38	-5773
▁JP	-5774
cape	-5775
icky	-5776
▁Boost	-5777
▁pushed	-5778
▁territ	-5779
▁parties	-5780
▁trouble	-5781
operation	-5782
▁Egyptian	-5783
▁officers	-5784
▁overtime	-5785
▁shooting	-5786
OP	-5787
TI	-5788
▁Gh	-5789
chie	-5790
inch	-5791
▁awa	-5792
otten	-5793
ushes	-5794
▁Myan	-5795
▁edge	-5796
▁vill	-5797
▁2005.	-5798
▁Tampa	-5799
▁devast	-5800
▁response	-5801
▁Cincinnati	-5802
HP	-5803
▁45	-5804
rier	-5805
▁#14	-5806
▁Bas	-5807
▁Sold	-5808
▁hole	-5809
istons	-5810
▁Kodak	-5811
▁flash	-5812
▁quiet	-5813
▁Columb	-5814
▁Hockey	-5815
▁assist	-5816
▁handed	-5817
▁reserv	-5818
▁Leaders	-5819
▁shuttle	-5820
▁Premiership	-5821
▁entertainment	-5822
UK	-5823
ELS	-5824
argo	-5825
iple	-5826
▁Mel	-5827
▁USA	-5828
▁bol	-5829
▁hum	-5830
onent	-5831
▁Make	-5832
▁Forec	-5833
▁Phill	-5834
mission	-5835
▁prelim	-5836
election	-5837
▁Myanmar	-5838
▁finding	-5839
▁promised	-5840
▁regional	-5841
▁stronger	-5842
▁defending	-5843
▁prisoners	-5844
▁remaining	-5845
▁withdrawal	-5846
arq	-5847
Look	-5848
abul	-5849
mond	-5850
▁pur	-5851
annel	-5852
phere	-5853
▁kind	-5854
terror	-5855
▁Block	-5856
▁abuse	-5857
▁finds	-5858
▁sides	-5859
▁Tehran	-5860
▁narrow	-5861
▁stadium	-5862
▁veteran	-5863
ini	-5864
rast	-5865
wait	-5866
ysis	-5867
▁hal	-5868
▁Head	-5869
▁fine	-5870
▁Blast	-5871
▁Break	-5872
▁Capital	-5873
▁unveils	-5874
▁vehicle	-5875
▁hardware	-5876
▁situation	-5877
▁terrorists	-5878
ped	-5879
ests	-5880
▁McD	-5881
▁Wor	-5882
▁worm	-5883
inning	-5884
minent	-5885
othing	-5886
rowing	-5887
▁Brian	-5888
▁Young	-5889
▁Jewish	-5890
▁parent	-5891
cription	-5892
▁describ	-5893
▁investigating	-5894
.;	-5895
▁Mr	-5896
inos	-5897
▁Pet	-5898
▁van	-5899
▁Kobe	-5900
arqawi	-5901
▁Wayne	-5902
▁widely	-5903
▁Jacques	-5904
▁putting	-5905
▁overnight	-5906
▁standards	-5907
Sh	-5908
ca	-5909
▁RE	-5910
state	-5911
▁Than	-5912
▁semi	-5913
idered	-5914
ointed	-5915
oppers	-5916
▁Brief	-5917
▁doing	-5918
▁votes	-5919
▁Island	-5920
▁Wenger	-5921
▁attend	-5922
▁broken	-5923
▁deaths	-5924
▁planet	-5925
▁speech	-5926
iversary	-5927
▁appeals	-5928
▁acquired	-5929
▁maintain	-5930
▁separate	-5931
▁Thousands	-5932
▁directors	-5933
▁NewsFactor	-5934
2)	-5935
Com	-5936
aug	-5937
▁Ali	-5938
▁KAB	-5939
▁Ferg	-5940
▁Mach	-5941
▁Viet	-5942
▁spir	-5943
▁Guard	-5944
▁opens	-5945
▁voice	-5946
▁Prince	-5947
▁recomm	-5948
▁Chechen	-5949
▁strikes	-5950
▁disaster	-5951
▁die	-5952
▁inn	-5953
cient	-5954
▁dual	-5955
▁KABUL	-5956
▁River	-5957
▁aband	-5958
▁Carter	-5959
NewsFactor	-5960
▁extension	-5961
▁disappointing	-5962
cks	-5963
oca	-5964
ofi	-5965
▁Jr	-5966
▁Ne	-5967
▁Lee	-5968
▁Tel	-5969
▁Toy	-5970
▁Gary	-5971
▁Pass	-5972
▁Viol	-5973
▁wave	-5974
buster	-5975
▁Build	-5976
▁Final	-5977
▁remov	-5978
ination	-5979
▁Barcel	-5980
▁Spitzer	-5981
▁magazine	-5982
▁attention	-5983
▁supercomputer	-5984
ga	-5985
assi	-5986
cons	-5987
yond	-5988
▁fan	-5989
inter	-5990
jhtml	-5991
▁Anal	-5992
▁cast	-5993
mantec	-5994
▁postp	-5995
▁beyond	-5996
▁leaves	-5997
▁scoring	-5998
▁website	-5999
▁Economic	-6000
▁Symantec	-6001
▁unbeaten	-6002
▁leadership	-6003
sym	-6004
▁PT	-6005
feld	-6006
fort	-6007
mary	-6008
ooth	-6009
▁700	-6010
▁cal	-6011
▁ten	-6012
▁adds	-6013
▁grab	-6014
seeded	-6015
▁backs	-6016
▁citiz	-6017
▁clean	-6018
aby	-6019
▁Lo	-6020
▁Rw	-6021
iece	-6022
▁McG	-6023
▁der	-6024
▁Brow	-6025
▁Ferr	-6026
▁auto	-6027
▁qcat	-6028
▁rein	-6029
▁sued	-6030
▁west	-6031
Lookup	-6032
▁Women	-6033
▁knock	-6034
▁means	-6035
▁prize	-6036
▁qtype	-6037
▁Jeanne	-6038
▁Source	-6039
▁crimes	-6040
▁franch	-6041
▁placed	-6042
▁Iranian	-6043
▁keeping	-6044
▁infotype	-6045
▁According	-6046
QuoteLookup	-6047
▁earthquake	-6048
▁increasingly	-6049
▁Hy	-6050
adem	-6051
umps	-6052
▁Dun	-6053
anged	-6054
▁laws	-6055
▁word	-6056
▁Makes	-6057
▁Offer	-6058
▁Sears	-6059
▁overt	-6060
▁tackle	-6061
▁traditional	-6062
MP	-6063
hman	-6064
▁Kim	-6065
▁abs	-6066
▁sun	-6067
▁corn	-6068
▁Sharap	-6069
▁defence	-6070
▁failure	-6071
▁feature	-6072
▁instant	-6073
▁rallied	-6074
▁rebounds	-6075
▁suspects	-6076
▁supporters	-6077
1.	-6078
agon	-6079
arta	-6080
▁McN	-6081
▁bin	-6082
apped	-6083
opped	-6084
▁fair	-6085
estone	-6086
▁Chart	-6087
▁Seeks	-6088
▁plays	-6089
▁vowed	-6090
▁Denver	-6091
▁rather	-6092
▁rookie	-6093
▁Lebanon	-6094
▁heading	-6095
▁natural	-6096
▁allowing	-6097
▁bombings	-6098
▁capacity	-6099
▁discover	-6100
▁continuing	-6101
Ex	-6102
TV	-6103
TED	-6104
rob	-6105
▁NO	-6106
▁Pf	-6107
star	-6108
well	-6109
apers	-6110
▁Mour	-6111
▁Walt	-6112
▁barg	-6113
▁slam	-6114
▁tent	-6115
ymnast	-6116
▁Milan	-6117
▁caught	-6118
▁renewed	-6119
▁succeed	-6120
▁Mariners	-6121
▁Barcelona	-6122
▁Brazilian	-6123
▁Sharapova	-6124
▁democracy	-6125
▁expressed	-6126
▁launching	-6127
▁prosecutors	-6128
▁sy	-6129
▁ham	-6130
anges	-6131
ervez	-6132
▁Gord	-6133
▁mine	-6134
icious	-6135
▁Larry	-6136
▁brand	-6137
▁holds	-6138
▁keeps	-6139
▁words	-6140
▁Pervez	-6141
▁Season	-6142
▁dozens	-6143
▁Vietnam	-6144
▁attorney	-6145
▁technologies	-6146
▁Entertainment	-6147
PA	-6148
va	-6149
TLE	-6150
USS	-6151
▁BBC	-6152
▁Mut	-6153
▁imm	-6154
▁mot	-6155
▁rac	-6156
arily	-6157
ounce	-6158
▁Sadr	-6159
▁dies	-6160
▁tiny	-6161
igious	-6162
▁Trial	-6163
▁lineup	-6164
▁observ	-6165
▁Edwards	-6166
▁compete	-6167
▁contrib	-6168
▁attacked	-6169
▁captured	-6170
▁increases	-6171
BUR	-6172
Dow	-6173
cos	-6174
▁AB	-6175
▁GA	-6176
▁SY	-6177
rist	-6178
owled	-6179
umped	-6180
▁king	-6181
▁Kmart	-6182
▁edged	-6183
▁white	-6184
▁backed	-6185
▁choice	-6186
▁images	-6187
▁reject	-6188
▁Genesis	-6189
▁perfect	-6190
▁comments	-6191
▁solution	-6192
▁Indianapolis	-6193
25	-6194
kle	-6195
▁76	-6196
icts	-6197
ijay	-6198
outs	-6199
▁Pil	-6200
aints	-6201
lying	-6202
▁Unit	-6203
enders	-6204
▁email	-6205
▁songs	-6206
▁stret	-6207
stitute	-6208
▁Direct	-6209
▁Pfizer	-6210
▁Thomas	-6211
▁ability	-6212
▁predict	-6213
▁separat	-6214
▁agencies	-6215
▁Officials	-6216
▁nationwide	-6217
▁restructuring	-6218
GE	-6219
▁BA	-6220
▁HO	-6221
aven	-6222
▁FDA	-6223
▁Ray	-6224
▁pip	-6225
▁Hass	-6226
▁bell	-6227
▁Store	-6228
▁seized	-6229
▁assassin	-6230
▁claiming	-6231
▁defeated	-6232
▁Democrats	-6233
yad	-6234
sule	-6235
▁Far	-6236
▁pen	-6237
▁Have	-6238
▁feel	-6239
engers	-6240
▁Vijay	-6241
▁rises	-6242
▁Claims	-6243
▁Forces	-6244
▁unless	-6245
▁matches	-6246
▁Enterprise	-6247
▁officially	-6248
▁preliminary	-6249
For	-6250
het	-6251
lor	-6252
Sadr	-6253
hood	-6254
▁FCC	-6255
▁Mun	-6256
▁enj	-6257
icing	-6258
▁Jays	-6259
▁SING	-6260
▁Wild	-6261
▁fees	-6262
▁Kabul	-6263
▁Agassi	-6264
▁blasts	-6265
▁Pistons	-6266
▁chances	-6267
▁command	-6268
▁overall	-6269
▁alliance	-6270
▁database	-6271
aked	-6272
ibur	-6273
▁Pen	-6274
▁Ple	-6275
▁pra	-6276
itude	-6277
venue	-6278
▁coup	-6279
▁fort	-6280
▁wash	-6281
▁zone	-6282
▁drove	-6283
iburton	-6284
ourcing	-6285
▁Gordon	-6286
▁Unveil	-6287
▁camera	-6288
▁drives	-6289
▁Challenge	-6290
▁providers	-6291
▁Management	-6292
▁threatening	-6293
arks	-6294
cine	-6295
gram	-6296
▁mal	-6297
igger	-6298
▁NCAA	-6299
▁Salv	-6300
▁tell	-6301
▁wond	-6302
▁achie	-6303
▁lives	-6304
▁works	-6305
▁apolog	-6306
▁raises	-6307
▁tempor	-6308
▁Rockets	-6309
▁evening	-6310
▁towards	-6311
▁Commerce	-6312
▁vehicles	-6313
▁announces	-6314
▁involving	-6315
▁considered	-6316
▁Halliburton	-6317
had	-6318
▁HD	-6319
Ship	-6320
▁Opt	-6321
▁ice	-6322
▁ris	-6323
▁ult	-6324
▁Acqu	-6325
▁Clin	-6326
▁VoIP	-6327
▁onto	-6328
▁Leads	-6329
▁deadl	-6330
▁eased	-6331
▁rapid	-6332
▁Chirac	-6333
▁bomber	-6334
▁welcom	-6335
▁refused	-6336
▁telecom	-6337
▁violent	-6338
▁breaking	-6339
▁unlikely	-6340
▁reporting	-6341
▁sentenced	-6342
▁bi	-6343
▁Pad	-6344
▁lap	-6345
elson	-6346
sters	-6347
▁Kofi	-6348
▁wake	-6349
▁advis	-6350
ucation	-6351
▁delays	-6352
▁giants	-6353
▁lifted	-6354
▁poised	-6355
▁vendor	-6356
▁Economy	-6357
▁criticism	-6358
/2	-6359
ILL	-6360
Kore	-6361
▁Lim	-6362
APORE	-6363
ables	-6364
agers	-6365
posed	-6366
uggle	-6367
▁Garc	-6368
▁Many	-6369
▁heat	-6370
▁Human	-6371
▁comeb	-6372
▁dream	-6373
▁occup	-6374
▁resum	-6375
ShipOne	-6376
▁partic	-6377
▁piracy	-6378
▁screen	-6379
▁Workers	-6380
▁emerged	-6381
IG	-6382
ebr	-6383
haps	-6384
haul	-6385
▁Opp	-6386
power	-6387
▁erup	-6388
▁Nepal	-6389
▁Quest	-6390
▁Thanks	-6391
▁associ	-6392
▁street	-6393
▁SINGAPORE	-6394
erc	-6395
irus	-6396
▁Fut	-6397
aling	-6398
▁cerem	-6399
▁falls	-6400
▁truck	-6401
▁winds	-6402
▁planes	-6403
▁Summary	-6404
▁encoura	-6405
▁portable	-6406
▁processors	-6407
rav	-6408
sun	-6409
berg	-6410
boys	-6411
iana	-6412
pril	-6413
▁Jam	-6414
▁Tre	-6415
ecess	-6416
raphics	-6417
sharing	-6418
▁Arctic	-6419
▁banned	-6420
▁revers	-6421
▁Typhoon	-6422
▁waiting	-6423
▁comeback	-6424
▁governments	-6425
NEY	-6426
▁Id	-6427
▁PH	-6428
pass	-6429
umph	-6430
▁Ryan	-6431
▁Sign	-6432
dollar	-6433
▁turns	-6434
▁condem	-6435
▁Kidnapp	-6436
▁doubled	-6437
▁failing	-6438
▁install	-6439
▁vendors	-6440
▁creating	-6441
▁peacekeep	-6442
▁hurricanes	-6443
7.	-6444
van	-6445
▁Ov	-6446
aida	-6447
born	-6448
etts	-6449
hell	-6450
iege	-6451
plan	-6452
uild	-6453
▁Ask	-6454
amous	-6455
eland	-6456
▁Bobby	-6457
▁sidel	-6458
quarters	-6459
▁Colombia	-6460
▁dramatic	-6461
▁shipping	-6462
▁technical	-6463
▁announcing	-6464
▁securities	-6465
▁anniversary	-6466
▁manufacturer	-6467
imp	-6468
▁CD	-6469
auts	-6470
rawn	-6471
▁Plc	-6472
▁Squ	-6473
icals	-6474
thrit	-6475
▁Thai	-6476
▁Clear	-6477
▁newly	-6478
▁Browns	-6479
▁Jersey	-6480
▁Settle	-6481
▁benefit	-6482
▁collapse	-6483
▁property	-6484
▁postseason	-6485
▁SpaceShipOne	-6486
gu	-6487
ss	-6488
zz	-6489
burg	-6490
cont	-6491
eras	-6492
side	-6493
▁Fil	-6494
▁bul	-6495
▁cold	-6496
▁jury	-6497
▁self	-6498
lected	-6499
▁Share	-6500
▁Tennis	-6501
▁driving	-6502
▁refugee	-6503
▁soaring	-6504
▁Longhorn	-6505
▁convicted	-6506
TT	-6507
bar	-6508
▁VI	-6509
▁Env	-6510
▁gri	-6511
achus	-6512
elesc	-6513
▁Even	-6514
▁Firm	-6515
▁safe	-6516
▁Kyoto	-6517
▁quite	-6518
▁Arrest	-6519
▁Battle	-6520
▁altern	-6521
▁favour	-6522
▁Connect	-6523
▁Hostage	-6524
▁inquiry	-6525
▁lawyers	-6526
▁streets	-6527
achusetts	-6528
▁patients	-6529
▁passenger	-6530
AU	-6531
Mo	-6532
SU	-6533
den	-6534
▁65	-6535
Cent	-6536
emen	-6537
iter	-6538
▁7-6	-6539
▁Jak	-6540
known	-6541
▁Peru	-6542
▁Sout	-6543
▁April	-6544
▁heads	-6545
thritis	-6546
▁Titans	-6547
▁events	-6548
▁offset	-6549
▁picked	-6550
▁status	-6551
▁pushing	-6552
▁contracts	-6553
▁Massachusetts	-6554
EFA	-6555
oya	-6556
▁ESP	-6557
▁Fox	-6558
▁mos	-6559
▁Coll	-6560
▁Seek	-6561
▁pact	-6562
ibbean	-6563
▁alive	-6564
▁Henman	-6565
▁Indians	-6566
▁Marlins	-6567
▁seasons	-6568
▁messages	-6569
▁franchise	-6570
▁improving	-6571
▁developers	-6572
▁surprising	-6573
PH	-6574
DNEY	-6575
cost	-6576
▁6-1	-6577
▁ele	-6578
▁har	-6579
embly	-6580
ennan	-6581
italia	-6582
▁Anton	-6583
▁Users	-6584
anguage	-6585
foWorld	-6586
related	-6587
▁trigger	-6588
▁convention	-6589
▁washington	-6590
lee	-6591
och	-6592
▁48	-6593
azer	-6594
▁Som	-6595
leans	-6596
▁ESPN	-6597
▁Kenn	-6598
▁Serb	-6599
▁UEFA	-6600
▁raid	-6601
▁user	-6602
▁Ahead	-6603
▁Sunni	-6604
▁shots	-6605
▁County	-6606
▁SYDNEY	-6607
▁Toyota	-6608
▁atomic	-6609
▁figure	-6610
▁switch	-6611
▁schools	-6612
▁Advanced	-6613
▁Maryland	-6614
▁injuring	-6615
▁measures	-6616
▁surround	-6617
▁Caribbean	-6618
▁washingtonpost	-6619
04	-6620
IV	-6621
lip	-6622
▁Ke	-6623
aire	-6624
aped	-6625
shot	-6626
▁Won	-6627
▁dial	-6628
▁idea	-6629
artner	-6630
atcher	-6631
▁tries	-6632
▁radical	-6633
▁Alitalia	-6634
▁possibly	-6635
▁uncertain	-6636
2,	-6637
wh	-6638
tada	-6639
▁Fav	-6640
▁Appl	-6641
▁Hand	-6642
▁Wood	-6643
▁shel	-6644
▁multi	-6645
▁posts	-6646
▁sound	-6647
▁split	-6648
▁units	-6649
eseason	-6650
▁Chiefs	-6651
▁Fergus	-6652
▁Public	-6653
▁Serena	-6654
▁either	-6655
▁racing	-6656
▁recogn	-6657
▁weight	-6658
▁contest	-6659
▁impress	-6660
▁infring	-6661
▁signing	-6662
▁Standard	-6663
▁insisted	-6664
▁struggle	-6665
▁civilians	-6666
▁dismissed	-6667
▁communications	-6668
olm	-6669
▁Bol	-6670
▁DEL	-6671
▁Lyn	-6672
▁Mad	-6673
▁fit	-6674
endum	-6675
inois	-6676
ister	-6677
itect	-6678
▁Plus	-6679
▁exam	-6680
▁liqu	-6681
inters	-6682
irates	-6683
▁Early	-6684
▁Libya	-6685
▁gained	-6686
▁lawyer	-6687
▁traded	-6688
▁Science	-6689
▁clashes	-6690
▁ongoing	-6691
▁DC	-6692
▁di	-6693
road	-6694
▁Ten	-6695
▁UNI	-6696
▁Curt	-6697
▁Past	-6698
▁lows	-6699
▁Daily	-6700
▁Delhi	-6701
▁spread	-6702
▁McLennan	-6703
▁condition	-6704
▁practices	-6705
▁Treasuries	-6706
CI	-6707
Pal	-6708
airs	-6709
▁Mah	-6710
ector	-6711
▁Crit	-6712
▁Harm	-6713
▁farm	-6714
▁holy	-6715
ground	-6716
▁Peter	-6717
▁Short	-6718
▁birth	-6719
▁slide	-6720
▁taxes	-6721
isation	-6722
▁Nether	-6723
▁worker	-6724
▁conclud	-6725
▁notebook	-6726
▁promises	-6727
▁provided	-6728
▁explosives	-6729
9,	-6730
▁)	-6731
azaa	-6732
cher	-6733
mate	-6734
▁Bos	-6735
▁era	-6736
Qaida	-6737
▁Brad	-6738
▁beta	-6739
▁Labour	-6740
▁Offers	-6741
standing	-6742
▁Jakarta	-6743
▁Vikings	-6744
▁machine	-6745
▁Hollinger	-6746
▁messaging	-6747
▁passengers	-6748
▁Netherlands	-6749
Web	-6750
bel	-6751
▁Ve	-6752
aret	-6753
rett	-6754
▁Ban	-6755
▁Cos	-6756
▁enh	-6757
▁rat	-6758
▁unf	-6759
▁Buff	-6760
▁recr	-6761
employ	-6762
iamond	-6763
▁Kazaa	-6764
▁Small	-6765
▁bench	-6766
▁squad	-6767
▁Credit	-6768
▁conserv	-6769
▁founder	-6770
▁receive	-6771
▁viruses	-6772
▁identity	-6773
▁releases	-6774
We	-6775
ua	-6776
omes	-6777
rell	-6778
▁197	-6779
▁Cat	-6780
▁Men	-6781
final	-6782
udden	-6783
▁HOUS	-6784
▁Roll	-6785
▁Site	-6786
▁evac	-6787
▁Water	-6788
▁dozen	-6789
Central	-6790
▁bottom	-6791
▁breaks	-6792
▁spring	-6793
▁Charges	-6794
▁Telecom	-6795
▁spyware	-6796
▁Ferguson	-6797
▁Basketball	-6798
▁throughout	-6799
EG	-6800
GM	-6801
SA	-6802
MSFT	-6803
mits	-6804
▁Buc	-6805
oline	-6806
▁gear	-6807
▁Schum	-6808
▁Smart	-6809
▁sells	-6810
ructure	-6811
▁Forest	-6812
▁Lehman	-6813
▁Cowboys	-6814
▁attract	-6815
▁friends	-6816
▁present	-6817
▁predicted	-6818
no	-6819
AMA	-6820
ipe	-6821
ayer	-6822
▁Jer	-6823
▁Luc	-6824
ashion	-6825
esters	-6826
▁deleg	-6827
▁solar	-6828
▁Flight	-6829
▁Social	-6830
▁rescue	-6831
▁Airport	-6832
▁Illinois	-6833
▁everything	-6834
▁legislation	-6835
▁construction	-6836
3,	-6837
eu	-6838
ano	-6839
iel	-6840
ovo	-6841
▁2:	-6842
▁NA	-6843
mens	-6844
▁Add	-6845
▁Ord	-6846
▁bre	-6847
emens	-6848
▁Coca	-6849
▁Mult	-6850
▁Need	-6851
acking	-6852
icated	-6853
▁Stern	-6854
▁Cheney	-6855
▁Fields	-6856
▁Insurg	-6857
▁bitter	-6858
▁combat	-6859
▁fellow	-6860
▁hockey	-6861
▁steady	-6862
▁Austria	-6863
▁injuries	-6864
▁committee	-6865
▁dangerous	-6866
▁additional	-6867
▁opportunity	-6868
▁subscribers	-6869
▁organization	-6870
amo	-6871
▁RF	-6872
LAND	-6873
cean	-6874
▁BOS	-6875
▁DNA	-6876
▁SEO	-6877
▁sal	-6878
▁Find	-6879
▁aren	-6880
▁libr	-6881
▁nort	-6882
▁Warns	-6883
▁deput	-6884
▁heard	-6885
▁Arabia	-6886
▁sudden	-6887
▁Edition	-6888
▁climbed	-6889
▁playoffs	-6890
▁introduce	-6891
enda	-6892
▁Fal	-6893
▁mus	-6894
▁Canc	-6895
▁Half	-6896
▁Hung	-6897
▁Navy	-6898
USSELS	-6899
ashing	-6900
ocused	-6901
uresmo	-6902
▁relie	-6903
▁Knicks	-6904
▁clinch	-6905
▁regard	-6906
▁Gartner	-6907
▁greater	-6908
▁managed	-6909
▁pledged	-6910
▁politic	-6911
▁resolve	-6912
▁strengthen	-6913
▁environmental	-6914
AND	-6915
bor	-6916
new	-6917
oen	-6918
bert	-6919
▁Doc	-6920
▁Eri	-6921
▁Loc	-6922
▁bal	-6923
athan	-6924
▁hour	-6925
ifying	-6926
▁beats	-6927
▁driven	-6928
▁Devices	-6929
▁carried	-6930
▁joining	-6931
▁stopped	-6932
▁journalists	-6933
40	-6934
like	-6935
▁Abd	-6936
Berry	-6937
▁File	-6938
▁Foods	-6939
▁cease	-6940
▁enjoy	-6941
ecurity	-6942
▁corner	-6943
▁seemed	-6944
▁Antonio	-6945
▁Clemens	-6946
▁militia	-6947
▁pleaded	-6948
▁dominated	-6949
▁connection	-6950
▁Researchers	-6951
▁semiconductor	-6952
▁Ob	-6953
Amer	-6954
avez	-6955
wich	-6956
▁Eff	-6957
▁Len	-6958
▁NEC	-6959
▁sky	-6960
anson	-6961
▁Oper	-6962
▁Tool	-6963
ensing	-6964
ounces	-6965
▁Dream	-6966
▁Polit	-6967
▁alert	-6968
▁brawl	-6969
▁flags	-6970
▁pione	-6971
▁serve	-6972
▁depart	-6973
▁extrem	-6974
▁HOUSTON	-6975
▁Muslims	-6976
▁sharing	-6977
▁steroid	-6978
▁fighters	-6979
▁expanding	-6980
▁resignation	-6981
Star	-6982
eneg	-6983
iffe	-6984
▁Lyc	-6985
▁Pros	-6986
▁knew	-6987
▁sust	-6988
▁Bills	-6989
▁Close	-6990
▁ankle	-6991
▁prove	-6992
Station	-6993
awaited	-6994
ossible	-6995
▁Glazer	-6996
▁models	-6997
▁Siemens	-6998
▁destroy	-6999
▁BRUSSELS	-7000
▁Mauresmo	-7001
▁determin	-7002
▁visiting	-7003
▁Insurance	-7004
4,	-7005
OC	-7006
ST	-7007
ln	-7008
IAN	-7009
iab	-7010
oil	-7011
CoMo	-7012
▁Det	-7013
▁Sea	-7014
Qaeda	-7015
▁Flat	-7016
▁tied	-7017
giving	-7018
▁Deuts	-7019
▁Approv	-7020
▁minute	-7021
▁Embassy	-7022
▁aggress	-7023
▁hitting	-7024
▁rejects	-7025
▁accounts	-7026
▁apparent	-7027
▁investor	-7028
▁showdown	-7029
▁assistant	-7030
rastructure	-7031
▁corruption	-7032
▁semifinals	-7033
▁suspension	-7034
Af	-7035
▁Hu	-7036
ORTS	-7037
eled	-7038
▁Jun	-7039
▁Who	-7040
▁fat	-7041
apter	-7042
qtada	-7043
▁Anth	-7044
▁Camb	-7045
▁Mort	-7046
▁earn	-7047
cliffe	-7048
▁Calls	-7049
▁Staff	-7050
▁Adrian	-7051
▁DoCoMo	-7052
▁Hassan	-7053
▁father	-7054
▁master	-7055
▁backing	-7056
▁offices	-7057
▁prepare	-7058
▁ceremony	-7059
▁landmark	-7060
▁lawmakers	-7061
9.	-7062
mes	-7063
TAWA	-7064
uces	-7065
▁Emp	-7066
▁Las	-7067
usion	-7068
▁Bird	-7069
▁Harr	-7070
▁Ross	-7071
▁mind	-7072
▁phys	-7073
inking	-7074
▁Their	-7075
▁\$100	-7076
▁frust	-7077
▁table	-7078
▁Cambod	-7079
▁bigger	-7080
▁expert	-7081
▁highly	-7082
▁Attacks	-7083
▁Orleans	-7084
▁Solaris	-7085
▁cleared	-7086
▁respond	-7087
▁watched	-7088
▁Columbia	-7089
▁Israelis	-7090
▁marathon	-7091
▁qualifier	-7092
▁stronghold	-7093
▁PlayStation	-7094
▁potentially	-7095
▁headquarters	-7096
It	-7097
ae	-7098
▁4,	-7099
rone	-7100
work	-7101
▁Amid	-7102
▁Stra	-7103
▁bids	-7104
around	-7105
▁Osama	-7106
▁faced	-7107
ustries	-7108
▁Review	-7109
▁agents	-7110
▁Charley	-7111
▁closely	-7112
▁reduced	-7113
▁particip	-7114
▁responsible	-7115
uty	-7116
▁ir	-7117
Cola	-7118
acco	-7119
bing	-7120
illy	-7121
▁jun	-7122
ATION	-7123
rated	-7124
stone	-7125
▁Marg	-7126
▁gran	-7127
▁hike	-7128
▁plun	-7129
▁vide	-7130
izards	-7131
▁Hamil	-7132
▁Harry	-7133
▁Lycos	-7134
▁Celtic	-7135
▁Chavez	-7136
▁Lakers	-7137
▁Sweden	-7138
▁cannot	-7139
▁defend	-7140
▁medals	-7141
▁Diamond	-7142
▁Raptors	-7143
▁picture	-7144
▁stepped	-7145
▁anything	-7146
▁suggests	-7147
▁BlackBerry	-7148
BO	-7149
Vo	-7150
400	-7151
EST	-7152
azz	-7153
eder	-7154
▁USC	-7155
▁ign	-7156
enson	-7157
ittle	-7158
omers	-7159
▁Here	-7160
="-2"\	-7161
▁Caval	-7162
▁Links	-7163
▁holes	-7164
▁penal	-7165
▁urges	-7166
▁OTTAWA	-7167
▁Raises	-7168
▁answer	-7169
▁anyone	-7170
▁couple	-7171
▁easier	-7172
▁paying	-7173
▁housing	-7174
▁slipped	-7175
▁Campaign	-7176
▁Deutsche	-7177
▁Forecast	-7178
▁Hamilton	-7179
▁Pentagon	-7180
▁presence	-7181
▁Athletics	-7182
▁opponents	-7183
▁providing	-7184
▁Schumacher	-7185
CD	-7186
Net	-7187
▁Ol	-7188
olid	-7189
arant	-7190
icken	-7191
lando	-7192
level	-7193
mohan	-7194
▁seat	-7195
sunami	-7196
▁Rules	-7197
▁joins	-7198
▁worry	-7199
▁Motion	-7200
▁Travel	-7201
▁couldn	-7202
▁modest	-7203
▁weaker	-7204
▁Celtics	-7205
▁Clinton	-7206
▁require	-7207
▁airlines	-7208
▁Companies	-7209
▁suffering	-7210
▁Parliament	-7211
8,	-7212
▁3,	-7213
▁4-	-7214
▁TE	-7215
ILLE	-7216
king	-7217
▁CNN	-7218
▁Tay	-7219
▁dig	-7220
▁hur	-7221
urned	-7222
woman	-7223
▁Edge	-7224
▁cart	-7225
▁chem	-7226
Source	-7227
azeera	-7228
ounced	-7229
umping	-7230
▁Theft	-7231
▁consp	-7232
acement	-7233
▁BOSTON	-7234
missions	-7235
▁compens	-7236
▁ranking	-7237
▁screens	-7238
▁accident	-7239
▁reaching	-7240
▁successor	-7241
▁kidnappers	-7242
▁anticipated	-7243
DP	-7244
def	-7245
osh	-7246
inea	-7247
urred	-7248
▁Auss	-7249
▁Dick	-7250
▁Line	-7251
▁Moon	-7252
▁Pict	-7253
▁bull	-7254
▁core	-7255
uggish	-7256
▁Title	-7257
▁\$500	-7258
▁aside	-7259
▁inaug	-7260
through	-7261
▁Concer	-7262
▁Helens	-7263
▁Peters	-7264
▁writes	-7265
▁cameras	-7266
▁causing	-7267
▁conduct	-7268
▁proceed	-7269
▁triumph	-7270
▁Electric	-7271
▁citizens	-7272
▁projects	-7273
▁illegally	-7274
▁insurgent	-7275
▁Electronic	-7276
▁inventories	-7277
▁successfully	-7278
dney	-7279
leet	-7280
onda	-7281
▁sav	-7282
onald	-7283
ulate	-7284
▁Join	-7285
▁Prov	-7286
▁fate	-7287
▁Mosul	-7288
▁Sever	-7289
▁cases	-7290
▁paper	-7291
▁amount	-7292
▁experim	-7293
▁largely	-7294
▁produce	-7295
▁Thatcher	-7296
▁delivered	-7297
▁described	-7298
▁challenges	-7299
▁possibility	-7300
▁manufacturers	-7301
▁/	-7302
arr	-7303
ili	-7304
nel	-7305
▁Ko	-7306
adow	-7307
best	-7308
▁600	-7309
▁Sor	-7310
▁Best	-7311
ahawks	-7312
▁Eight	-7313
▁Henry	-7314
▁breat	-7315
▁entry	-7316
▁helps	-7317
▁orbit	-7318
▁agrees	-7319
▁doping	-7320
▁intens	-7321
▁ousted	-7322
▁plants	-7323
▁Orlando	-7324
▁pitched	-7325
▁reforms	-7326
▁Netscape	-7327
▁overhaul	-7328
▁overseas	-7329
▁versions	-7330
▁warnings	-7331
▁Universal	-7332
▁implement	-7333
▁subsidiary	-7334
BAD	-7335
nie	-7336
rah	-7337
▁36	-7338
▁55	-7339
alem	-7340
tech	-7341
tops	-7342
uing	-7343
▁COL	-7344
▁Face	-7345
▁Land	-7346
▁Race	-7347
▁Rest	-7348
▁SEAT	-7349
▁Shan	-7350
▁VIEN	-7351
etrole	-7352
minute	-7353
uccess	-7354
▁Years	-7355
▁daily	-7356
atively	-7357
umsfeld	-7358
▁Andrew	-7359
▁Ballmer	-7360
▁capsule	-7361
▁Manmohan	-7362
▁suggested	-7363
SS	-7364
.\\	-7365
owa	-7366
▁Cz	-7367
away	-7368
life	-7369
omer	-7370
tion	-7371
▁1-1	-7372
▁198	-7373
▁Eis	-7374
▁Let	-7375
▁gro	-7376
Korea	-7377
abled	-7378
ample	-7379
astic	-7380
grade	-7381
idend	-7382
▁Ends	-7383
▁iMac	-7384
▁love	-7385
▁marg	-7386
▁Abbey	-7387
▁hired	-7388
▁Eisner	-7389
▁Guinea	-7390
▁Sydney	-7391
▁affect	-7392
▁blamed	-7393
▁Marines	-7394
▁Silicon	-7395
▁Wizards	-7396
▁critics	-7397
▁arthritis	-7398
▁networking	-7399
yan	-7400
▁ML	-7401
▁Va	-7402
ache	-7403
aste	-7404
burn	-7405
fall	-7406
▁Nic	-7407
▁Ven	-7408
▁gam	-7409
antas	-7410
olves	-7411
aching	-7412
itches	-7413
making	-7414
▁Spurs	-7415
▁explo	-7416
▁happy	-7417
▁SPORTS	-7418
▁centre	-7419
▁instit	-7420
▁powers	-7421
etroleum	-7422
▁Raiders	-7423
▁Unveils	-7424
▁measure	-7425
▁virtual	-7426
▁Rumsfeld	-7427
▁Seahawks	-7428
▁Violence	-7429
▁produced	-7430
▁recording	-7431
▁Convention	-7432
LD	-7433
▁Em	-7434
▁Vs	-7435
▁ep	-7436
LINE	-7437
reck	-7438
▁Pin	-7439
▁Foll	-7440
▁Owen	-7441
icking	-7442
▁ATLAN	-7443
▁Busch	-7444
▁fined	-7445
▁Briton	-7446
▁Explos	-7447
▁larger	-7448
elescope	-7449
ologists	-7450
▁Harmony	-7451
▁Victory	-7452
▁disrupt	-7453
▁Military	-7454
▁Partners	-7455
▁electric	-7456
▁favorite	-7457
employment	-7458
▁demanding	-7459
▁positions	-7460
▁programme	-7461
▁secretary	-7462
▁territory	-7463
-6,	-7464
dem	-7465
oard	-7466
oyal	-7467
race	-7468
▁SAP	-7469
▁Viv	-7470
▁mil	-7471
▁tim	-7472
umber	-7473
▁Fans	-7474
▁Well	-7475
▁impl	-7476
teries	-7477
▁Cross	-7478
▁DELHI	-7479
▁Ready	-7480
▁Supply	-7481
▁earned	-7482
▁feared	-7483
▁flying	-7484
▁obtain	-7485
▁worlds	-7486
▁Anthony	-7487
▁perhaps	-7488
▁suspect	-7489
▁worried	-7490
▁everyone	-7491
▁expanded	-7492
▁Cavaliers	-7493
▁Institute	-7494
▁offerings	-7495
▁helicopter	-7496
▁infrastructure	-7497
65	-7498
Fr	-7499
sl	-7500
rif	-7501
▁Kl	-7502
▁Ku	-7503
chny	-7504
itas	-7505
ucky	-7506
▁Arm	-7507
▁Bec	-7508
▁Est	-7509
▁ads	-7510
▁tre	-7511
VILLE	-7512
fford	-7513
ordin	-7514
stein	-7515
▁Sand	-7516
▁Soon	-7517
▁ackn	-7518
active	-7519
▁Chase	-7520
▁Child	-7521
▁Match	-7522
▁10,000	-7523
▁Silver	-7524
▁Sirius	-7525
▁jailed	-7526
▁silver	-7527
▁Chechny	-7528
▁Itanium	-7529
▁rebound	-7530
ymnastics	-7531
▁estimated	-7532
▁particular	-7533
▁Championships	-7534
GB	-7535
UT	-7536
▁GE	-7537
▁em	-7538
core	-7539
cott	-7540
olen	-7541
rand	-7542
▁150	-7543
▁Ell	-7544
▁Meg	-7545
▁Raf	-7546
▁Ref	-7547
▁sea	-7548
▁asks	-7549
▁porn	-7550
remlin	-7551
▁displ	-7552
▁euros	-7553
billion	-7554
▁lowest	-7555
▁string	-7556
▁titles	-7557
▁brother	-7558
▁talking	-7559
▁Chechnya	-7560
▁graphics	-7561
▁invasion	-7562
▁spammers	-7563
▁diplomats	-7564
▁Foundation	-7565
▁referendum	-7566
▁competitive	-7567
▁outsourcing	-7568
▁Semiconductor	-7569
AV	-7570
UST	-7571
irt	-7572
▁Bi	-7573
hour	-7574
lled	-7575
oral	-7576
▁CBC	-7577
▁Allen	-7578
▁Domin	-7579
▁exact	-7580
western	-7581
▁Garcia	-7582
▁Nearly	-7583
▁deputy	-7584
▁ensure	-7585
▁follow	-7586
▁rolled	-7587
▁capture	-7588
▁willing	-7589
▁District	-7590
▁acknowled	-7591
▁heavyweight	-7592
▁relationship	-7593
ERS	-7594
▁66	-7595
▁Ca	-7596
▁Pa	-7597
card	-7598
egas	-7599
ikes	-7600
usts	-7601
vard	-7602
▁Inv	-7603
▁adj	-7604
▁cyc	-7605
eries	-7606
fully	-7607
▁Circ	-7608
▁Rain	-7609
▁hunt	-7610
market	-7611
▁Czech	-7612
▁Famil	-7613
▁Hills	-7614
▁Since	-7615
▁links	-7616
▁nomin	-7617
▁unpre	-7618
▁Commun	-7619
▁Contin	-7620
▁Justin	-7621
▁rushed	-7622
Networks	-7623
▁Cabinet	-7624
▁Eastern	-7625
▁Support	-7626
▁lockout	-7627
▁updates	-7628
▁meetings	-7629
▁provides	-7630
▁shoulder	-7631
▁watching	-7632
▁appointed	-7633
▁architect	-7634
▁Republicans	-7635
MT	-7636
odd	-7637
▁BT	-7638
▁BCS	-7639
▁Bes	-7640
oints	-7641
sized	-7642
▁Gard	-7643
▁Lock	-7644
▁Sell	-7645
▁prim	-7646
ortium	-7647
stroke	-7648
▁Gains	-7649
▁Weigh	-7650
▁desert	-7651
▁marked	-7652
▁mosque	-7653
▁stands	-7654
▁Program	-7655
▁cabinet	-7656
▁complex	-7657
▁drivers	-7658
▁roundup	-7659
▁Protocol	-7660
▁compared	-7661
▁remember	-7662
▁returning	-7663
▁astronauts	-7664
▁commissioner	-7665
▁professional	-7666
CA	-7667
ANG	-7668
dom	-7669
vic	-7670
▁5-	-7671
▁15-	-7672
riend	-7673
▁Merc	-7674
▁RFID	-7675
▁dark	-7676
▁rich	-7677
▁spin	-7678
ective	-7679
▁Vegas	-7680
▁gunmen	-7681
▁Finance	-7682
▁hackers	-7683
portation	-7684
▁Although	-7685
▁accepted	-7686
▁accusing	-7687
▁collabor	-7688
▁followed	-7689
▁formally	-7690
▁Radcliffe	-7691
▁sentiment	-7692
▁targeting	-7693
▁Philippine	-7694
8.	-7695
ez	-7696
ka	-7697
big	-7698
▁FA	-7699
▁IE	-7700
▁TD	-7701
▁et	-7702
inho	-7703
rect	-7704
stra	-7705
▁Mat	-7706
▁Spe	-7707
▁Use	-7708
▁flo	-7709
▁tap	-7710
onics	-7711
▁Snow	-7712
▁busy	-7713
▁exec	-7714
▁norm	-7715
▁pole	-7716
alties	-7717
▁Hopes	-7718
▁Offic	-7719
▁Wants	-7720
itarian	-7721
▁Nasdaq	-7722
▁client	-7723
cedented	-7724
▁ATLANTA	-7725
▁Holiday	-7726
▁Kremlin	-7727
▁monthly	-7728
▁emerging	-7729
▁included	-7730
▁payments	-7731
▁shareholder	-7732
ych	-7733
▁78	-7734
▁Ce	-7735
aken	-7736
foot	-7737
▁30-	-7738
▁Bor	-7739
oking	-7740
▁Jama	-7741
▁Priv	-7742
▁door	-7743
ingham	-7744
umbled	-7745
▁Memph	-7746
▁blame	-7747
▁UNITED	-7748
▁Control	-7749
▁Pentium	-7750
▁SEATTLE	-7751
▁Stephen	-7752
▁Contract	-7753
▁politics	-7754
▁downloads	-7755
▁department	-7756
▁membership	-7757
▁distribution	-7758
DT	-7759
100	-7760
uth	-7761
▁42	-7762
ippi	-7763
oted	-7764
▁ATA	-7765
▁Soy	-7766
uxury	-7767
▁Honda	-7768
▁Signs	-7769
▁Urges	-7770
inition	-7771
▁Demand	-7772
▁ONLINE	-7773
▁Winter	-7774
▁Memphis	-7775
▁elected	-7776
▁homered	-7777
▁reasons	-7778
▁Hospital	-7779
▁supplier	-7780
▁prospects	-7781
▁shipments	-7782
▁individual	-7783
gs	-7784
fol	-7785
onn	-7786
aska	-7787
offs	-7788
▁BER	-7789
▁Gro	-7790
▁ang	-7791
▁esp	-7792
ifies	-7793
inson	-7794
ossil	-7795
▁Wake	-7796
▁cult	-7797
▁lets	-7798
▁meth	-7799
▁uses	-7800
enport	-7801
▁Champ	-7802
▁Maria	-7803
▁brain	-7804
▁photo	-7805
▁robot	-7806
▁tells	-7807
ecially	-7808
ography	-7809
▁Little	-7810
▁Valley	-7811
▁pounds	-7812
▁awarded	-7813
▁promise	-7814
▁Margaret	-7815
▁Trafford	-7816
▁transfer	-7817
▁Davenport	-7818
▁currently	-7819
▁preseason	-7820
▁Insurgents	-7821
▁experience	-7822
▁cooperation	-7823
05	-7824
MB	-7825
PR	-7826
dro	-7827
hew	-7828
lon	-7829
zen	-7830
▁AU	-7831
LAMA	-7832
Neal	-7833
achi	-7834
icut	-7835
▁CRM	-7836
▁Sep	-7837
▁Van	-7838
▁typ	-7839
antan	-7840
emale	-7841
worth	-7842
▁Horn	-7843
▁Symb	-7844
▁Tops	-7845
▁bron	-7846
▁heav	-7847
ernand	-7848
▁Abbas	-7849
▁Mayor	-7850
▁SEOUL	-7851
▁siege	-7852
▁whole	-7853
LAMABAD	-7854
atorial	-7855
▁Defeat	-7856
▁Golden	-7857
▁VIENNA	-7858
▁convoy	-7859
▁mostly	-7860
▁PalmOne	-7861
▁Release	-7862
▁factory	-7863
▁parents	-7864
▁subject	-7865
▁Democrat	-7866
▁McDonald	-7867
▁targeted	-7868
▁Southeast	-7869
▁effective	-7870
▁struggled	-7871
▁Connecticut	-7872
▁responsibility	-7873
90	-7874
cle	-7875
▁LA	-7876
abil	-7877
ader	-7878
▁MAN	-7879
▁cru	-7880
inked	-7881
ishes	-7882
range	-7883
vania	-7884
▁1990	-7885
▁Bosn	-7886
▁Trib	-7887
▁Vill	-7888
▁prec	-7889
▁trop	-7890
imming	-7891
▁Every	-7892
▁Shell	-7893
▁accel	-7894
▁apart	-7895
▁congr	-7896
▁crime	-7897
▁limit	-7898
▁shown	-7899
▁famous	-7900
▁gaming	-7901
▁approve	-7902
▁vaccine	-7903
▁internal	-7904
▁supposed	-7905
▁ISLAMABAD	-7906
▁engineers	-7907
▁operators	-7908
Is	-7909
eps	-7910
▁Di	-7911
▁OF	-7912
ghai	-7913
otes	-7914
ties	-7915
whel	-7916
▁Sab	-7917
▁WTO	-7918
▁Why	-7919
▁pet	-7920
eless	-7921
ipper	-7922
▁Brew	-7923
▁Prom	-7924
▁Vice	-7925
▁felt	-7926
▁hasn	-7927
apster	-7928
etimes	-7929
▁Safin	-7930
▁Jaguar	-7931
▁brings	-7932
▁denies	-7933
▁determ	-7934
▁freeze	-7935
▁meters	-7936
atically	-7937
▁Suicide	-7938
▁focused	-7939
▁limited	-7940
▁attempts	-7941
▁multiple	-7942
▁revenues	-7943
▁competitors	-7944
▁controversy	-7945
▁Thanksgiving	-7946
▁unprecedented	-7947
▁PS	-7948
▁SH	-7949
endi	-7950
ully	-7951
▁EMC	-7952
▁Ori	-7953
▁Pct	-7954
▁Cast	-7955
▁Clar	-7956
▁Murd	-7957
▁beef	-7958
▁vast	-7959
▁Round	-7960
▁weigh	-7961
▁NATION	-7962
▁landsl	-7963
▁shrine	-7964
ointment	-7965
▁Broncos	-7966
▁landing	-7967
▁patents	-7968
▁serving	-7969
▁surface	-7970
▁Chargers	-7971
▁Shanghai	-7972
▁greatest	-7973
▁separatist	-7974
FI	-7975
UJA	-7976
aly	-7977
iga	-7978
isf	-7979
face	-7980
▁3-1	-7981
▁Bad	-7982
▁Box	-7983
▁Gil	-7984
▁MAR	-7985
▁Lley	-7986
▁Sets	-7987
▁blew	-7988
▁diss	-7989
▁feet	-7990
▁grid	-7991
▁toug	-7992
planes	-7993
ulated	-7994
vement	-7995
▁Exper	-7996
actions	-7997
▁aboard	-7998
▁assess	-7999
▁bronze	-8000
▁copies	-8001
▁Lleyton	-8002
▁Swedish	-8003
▁reserve	-8004
▁families	-8005
▁governor	-8006
▁protests	-8007
▁sentence	-8008
▁commander	-8009
▁crackdown	-8010
▁privately	-8011
▁scientific	-8012
armaceutical	-8013
▁Development	-8014
▁capabilities	-8015
2.	-8016
cut	-8017
eet	-8018
▁AC	-8019
abad	-8020
gate	-8021
▁1.0	-8022
▁wra	-8023
▁2001	-8024
▁6-3,	-8025
▁6-4,	-8026
▁Cyber	-8027
▁Lawsu	-8028
attered	-8029
▁mother	-8030
▁Everton	-8031
▁Napster	-8032
▁Alliance	-8033
▁Expected	-8034
▁Hundreds	-8035
▁gasoline	-8036
▁shoppers	-8037
▁sweeping	-8038
▁initiative	-8039
6.	-8040
EA	-8041
oco	-8042
▁75	-8043
▁Mu	-8044
▁Ti	-8045
ADEL	-8046
ints	-8047
▁Bul	-8048
▁mob	-8049
ahead	-8050
azard	-8051
▁Bull	-8052
▁Gene	-8053
▁Hill	-8054
▁NEWS	-8055
▁Sach	-8056
▁boom	-8057
▁fish	-8058
▁Panel	-8059
▁exerc	-8060
▁knows	-8061
ebruary	-8062
▁Norway	-8063
▁formal	-8064
▁origin	-8065
▁Ferrari	-8066
▁Kenneth	-8067
▁Revenue	-8068
▁Veritas	-8069
▁flagship	-8070
▁brokerage	-8071
▁teammates	-8072
wag	-8073
▁(3	-8074
▁DU	-8075
▁IR	-8076
acts	-8077
icle	-8078
said	-8079
ugby	-8080
▁800	-8081
▁Alt	-8082
▁Jul	-8083
▁Mod	-8084
aying	-8085
ocide	-8086
▁Belt	-8087
▁Beng	-8088
▁Rams	-8089
▁Suit	-8090
▁calm	-8091
ounter	-8092
▁exhib	-8093
▁owned	-8094
▁wides	-8095
▁Berlin	-8096
▁Latest	-8097
▁allies	-8098
▁fought	-8099
▁payment	-8100
▁committed	-8101
▁embattled	-8102
▁financing	-8103
▁immediate	-8104
▁regulatory	-8105
▁university	-8106
ono	-8107
orp	-8108
▁MI	-8109
▁od	-8110
ORLD	-8111
prom	-8112
ryst	-8113
ighed	-8114
▁Nick	-8115
▁Rose	-8116
▁3,000	-8117
▁Depot	-8118
▁Owens	-8119
▁drops	-8120
▁risks	-8121
▁Astron	-8122
▁backup	-8123
▁bright	-8124
▁exclus	-8125
▁manage	-8126
▁Gateway	-8127
▁Medical	-8128
▁reality	-8129
▁sparked	-8130
▁pictures	-8131
▁determine	-8132
▁Hurricanes	-8133
▁Diamondbacks	-8134
ems	-8135
ien	-8136
ram	-8137
▁(1	-8138
ancy	-8139
stop	-8140
▁Cop	-8141
▁mig	-8142
agues	-8143
meter	-8144
oenix	-8145
third	-8146
▁Chad	-8147
▁adap	-8148
▁blog	-8149
istics	-8150
▁#36;2	-8151
▁Faces	-8152
▁conver	-8153
antanamo	-8154
▁Philips	-8155
▁ancient	-8156
▁penalty	-8157
▁Bankrupt	-8158
▁Phillies	-8159
▁facility	-8160
▁gathered	-8161
▁pipeline	-8162
▁reporters	-8163
▁appearance	-8164
▁population	-8165
ikh	-8166
oms	-8167
ario	-8168
ding	-8169
▁Jay	-8170
▁gap	-8171
▁hat	-8172
pread	-8173
▁Doub	-8174
▁View	-8175
▁spons	-8176
ception	-8177
changed	-8178
▁Future	-8179
▁Racing	-8180
▁Safety	-8181
▁firing	-8182
▁photos	-8183
▁Phoenix	-8184
▁setback	-8185
▁clothing	-8186
▁threatens	-8187
WN	-8188
gins	-8189
uate	-8190
▁11,	-8191
▁lif	-8192
ellor	-8193
roper	-8194
▁Laur	-8195
▁Must	-8196
▁cred	-8197
▁mail	-8198
▁tank	-8199
aimler	-8200
chenko	-8201
ewhere	-8202
prises	-8203
▁Shows	-8204
▁loyal	-8205
▁races	-8206
imately	-8207
▁Buffalo	-8208
▁Murdoch	-8209
▁concess	-8210
▁funding	-8211
▁lowered	-8212
▁restore	-8213
▁Fighting	-8214
▁carriers	-8215
▁employee	-8216
▁handsets	-8217
▁momentum	-8218
▁sluggish	-8219
▁Consumers	-8220
▁concerned	-8221
▁strategic	-8222
▁explosions	-8223
▁revolution	-8224
KO	-8225
arn	-8226
has	-8227
unar	-8228
yers	-8229
▁Ont	-8230
iable	-8231
where	-8232
backed	-8233
string	-8234
ventus	-8235
▁Kenya	-8236
▁Least	-8237
▁crown	-8238
▁genet	-8239
▁casual	-8240
▁disarm	-8241
▁trials	-8242
American	-8243
ological	-8244
▁Project	-8245
▁Results	-8246
▁bolster	-8247
▁clients	-8248
▁retired	-8249
▁slowing	-8250
▁February	-8251
▁coaching	-8252
▁friendly	-8253
▁religious	-8254
▁alternative	-8255
cap	-8256
rey	-8257
▁37	-8258
▁Cur	-8259
▁Sav	-8260
▁Suz	-8261
▁Whe	-8262
charg	-8263
gling	-8264
ocket	-8265
▁Buys	-8266
▁Gain	-8267
▁Shut	-8268
▁Spec	-8269
▁Sven	-8270
▁Talk	-8271
▁thin	-8272
cessor	-8273
▁SPACE	-8274
▁swing	-8275
General	-8276
angered	-8277
▁Hughes	-8278
▁Scient	-8279
▁fierce	-8280
▁victim	-8281
▁Daimler	-8282
▁Officer	-8283
▁Storage	-8284
▁enforce	-8285
▁imports	-8286
▁Panthers	-8287
▁overwhel	-8288
ui	-8289
hem	-8290
tty	-8291
▁43	-8292
acom	-8293
rizz	-8294
▁Fen	-8295
▁Hal	-8296
▁Hun	-8297
▁bra	-8298
acker	-8299
amped	-8300
print	-8301
▁Also	-8302
▁Does	-8303
▁Fuel	-8304
▁Halo	-8305
▁Writ	-8306
▁\$55	-8307
▁drag	-8308
▁fled	-8309
▁guns	-8310
▁sand	-8311
encing	-8312
▁Cards	-8313
▁Eriks	-8314
▁Ricky	-8315
▁Suzuk	-8316
▁theft	-8317
▁trend	-8318
ersonal	-8319
▁Gunmen	-8320
▁Kuwait	-8321
▁Munich	-8322
▁Pilots	-8323
▁Survey	-8324
▁Mississ	-8325
▁Orioles	-8326
▁Several	-8327
▁coaches	-8328
▁knocked	-8329
▁quality	-8330
▁settled	-8331
▁stretch	-8332
▁studios	-8333
▁wickets	-8334
▁Investig	-8335
▁civilian	-8336
▁dominant	-8337
▁policies	-8338
▁slowdown	-8339
▁stations	-8340
▁scientist	-8341
▁widespread	-8342
▁Environment	-8343
ELL	-8344
IRO	-8345
sey	-8346
eyer	-8347
▁cha	-8348
▁lob	-8349
▁rum	-8350
▁sue	-8351
ivors	-8352
ology	-8353
▁ally	-8354
▁unus	-8355
backer	-8356
osevic	-8357
ounted	-8358
phones	-8359
▁loses	-8360
▁meets	-8361
▁shake	-8362
ambling	-8363
▁desper	-8364
▁easily	-8365
▁modern	-8366
▁worked	-8367
▁comfort	-8368
▁learned	-8369
▁license	-8370
▁disputed	-8371
▁strained	-8372
▁Authority	-8373
▁Broadband	-8374
▁producers	-8375
▁publisher	-8376
▁victories	-8377
▁Guantanamo	-8378
▁optimistic	-8379
▁RealNetworks	-8380
▁infringement	-8381
VP	-8382
▁Py	-8383
▁\\	-8384
Year	-8385
lets	-8386
more	-8387
▁Cas	-8388
▁Cro	-8389
▁Eli	-8390
▁Gri	-8391
▁IMF	-8392
▁MAD	-8393
ochet	-8394
uster	-8395
▁Fast	-8396
▁TiVo	-8397
▁east	-8398
▁hurd	-8399
▁magn	-8400
lights	-8401
▁Autom	-8402
▁sense	-8403
▁legend	-8404
▁repair	-8405
▁becomes	-8406
▁confirm	-8407
▁Juventus	-8408
▁Pinochet	-8409
▁language	-8410
▁education	-8411
▁extending	-8412
▁especially	-8413
▁compensation	-8414
-17	-8415
ENT	-8416
aka	-8417
uls	-8418
AKAR	-8419
aser	-8420
ette	-8421
flix	-8422
wart	-8423
▁Mol	-8424
mouth	-8425
onsin	-8426
useum	-8427
▁2012	-8428
▁Dies	-8429
▁Eric	-8430
▁Guid	-8431
▁Iowa	-8432
▁Kent	-8433
▁Phot	-8434
▁Rice	-8435
▁Wisc	-8436
▁grad	-8437
▁page	-8438
▁peer	-8439
▁plea	-8440
▁vows	-8441
imedia	-8442
▁Montg	-8443
▁bills	-8444
▁wreck	-8445
▁Beslan	-8446
▁Palace	-8447
▁column	-8448
▁equity	-8449
▁floods	-8450
▁humans	-8451
breaking	-8452
▁Branson	-8453
▁collaps	-8454
▁effects	-8455
▁granted	-8456
▁restaur	-8457
▁suspend	-8458
▁Eriksson	-8459
▁delivery	-8460
▁opponent	-8461
py	-8462
bro	-8463
pur	-8464
▁62	-8465
▁MO	-8466
anny	-8467
rict	-8468
▁Amb	-8469
▁LSU	-8470
acter	-8471
inion	-8472
▁Fort	-8473
▁Inst	-8474
▁Marc	-8475
▁Mick	-8476
▁bowl	-8477
▁rail	-8478
▁tape	-8479
ampton	-8480
▁2003,	-8481
▁Fresh	-8482
▁Gives	-8483
▁Incre	-8484
▁Names	-8485
▁Rebel	-8486
▁march	-8487
▁meant	-8488
▁persu	-8489
▁roads	-8490
▁Conway	-8491
▁Daniel	-8492
▁Indies	-8493
▁female	-8494
▁rounds	-8495
▁submar	-8496
▁tested	-8497
▁volunt	-8498
▁Andreas	-8499
▁NATIONS	-8500
▁crowded	-8501
▁passing	-8502
▁ministry	-8503
▁welcomed	-8504
▁Milosevic	-8505
▁Wisconsin	-8506
▁promising	-8507
▁Equatorial	-8508
▁Opposition	-8509
▁organizations	-8510
ANN	-8511
FOR	-8512
▁51	-8513
▁69	-8514
▁Ap	-8515
▁Lu	-8516
peer	-8517
rage	-8518
spam	-8519
▁GOP	-8520
world	-8521
▁Crew	-8522
▁Hurt	-8523
▁Holds	-8524
▁Ramad	-8525
▁medic	-8526
▁rough	-8527
▁write	-8528
▁Change	-8529
▁Fenway	-8530
▁Prison	-8531
▁exceed	-8532
▁Netflix	-8533
▁utility	-8534
struments	-8535
▁dividend	-8536
▁Mississippi	-8537
▁unexpectedly	-8538
eme	-8539
load	-8540
▁20-	-8541
▁Gaz	-8542
▁Kaz	-8543
▁LCD	-8544
armed	-8545
match	-8546
▁Cath	-8547
▁Give	-8548
▁PHIL	-8549
▁Resc	-8550
▁Yank	-8551
▁Finds	-8552
▁frequ	-8553
▁pound	-8554
assador	-8555
▁Forbes	-8556
▁Poland	-8557
▁Taylor	-8558
▁agenda	-8559
▁liquid	-8560
▁plenty	-8561
▁arrives	-8562
▁battles	-8563
▁console	-8564
▁engines	-8565
▁consolid	-8566
▁discount	-8567
▁prepares	-8568
6,	-8569
bi	-8570
po	-8571
ICE	-8572
dou	-8573
law	-8574
▁LP	-8575
▁QB	-8576
aron	-8577
ogue	-8578
prod	-8579
▁IDC	-8580
▁bug	-8581
SPACE	-8582
elect	-8583
▁caut	-8584
▁true	-8585
orious	-8586
▁Beats	-8587
▁Index	-8588
▁fixed	-8589
▁innov	-8590
▁loans	-8591
Quarter	-8592
leading	-8593
▁Hubble	-8594
▁academ	-8595
▁thrown	-8596
USATODAY	-8597
▁Briefly	-8598
▁Patrick	-8599
▁Switzer	-8600
▁Vivendi	-8601
▁revised	-8602
▁Lebanese	-8603
▁USATODAY	-8604
▁billions	-8605
▁cautious	-8606
▁document	-8607
▁celebrate	-8608
▁influence	-8609
▁postponed	-8610
▁regulator	-8611
▁identified	-8612
▁Blockbuster	-8613
KS	-8614
OOG	-8615
RID	-8616
mos	-8617
▁39	-8618
▁7-	-8619
▁Ba	-8620
PHIA	-8621
care	-8622
font	-8623
lies	-8624
▁Bln	-8625
▁Boy	-8626
ellow	-8627
▁Bert	-8628
▁Doug	-8629
▁Goes	-8630
▁Road	-8631
▁Weak	-8632
▁harm	-8633
▁path	-8634
▁Chips	-8635
▁Kenned	-8636
▁export	-8637
▁letter	-8638
▁luxury	-8639
▁necess	-8640
▁proved	-8641
▁sexual	-8642
overning	-8643
▁capable	-8644
▁justice	-8645
▁Monetary	-8646
▁creation	-8647
▁detained	-8648
▁existing	-8649
▁movement	-8650
AH	-8651
bon	-8652
izz	-8653
ups	-8654
▁AR	-8655
▁TH	-8656
▁Mys	-8657
▁OKs	-8658
▁Kris	-8659
▁NATO	-8660
enters	-8661
▁Polic	-8662
▁envoy	-8663
▁piece	-8664
▁pilot	-8665
▁worse	-8666
▁Debate	-8667
▁Lenovo	-8668
ADELPHIA	-8669
▁Bengals	-8670
▁Manager	-8671
▁fashion	-8672
▁handset	-8673
▁Scottish	-8674
▁combined	-8675
▁pitching	-8676
▁reserves	-8677
▁peacekeepers	-8678
▁unemployment	-8679
ED	-8680
fr	-8681
▁Ah	-8682
acre	-8683
coni	-8684
▁10,	-8685
▁17-	-8686
▁Gib	-8687
▁IND	-8688
▁SCO	-8689
▁fal	-8690
alley	-8691
▁Arch	-8692
▁Fair	-8693
▁Khan	-8694
▁Left	-8695
▁List	-8696
▁Mits	-8697
▁Rays	-8698
▁tail	-8699
▁task	-8700
jected	-8701
rolled	-8702
▁Angel	-8703
▁Check	-8704
▁Eliot	-8705
▁Stake	-8706
▁Trump	-8707
▁cells	-8708
▁recru	-8709
holders	-8710
▁Phones	-8711
▁Produc	-8712
▁Rodrig	-8713
▁Square	-8714
▁barely	-8715
▁hiring	-8716
▁storms	-8717
▁waters	-8718
▁Harvard	-8719
▁Profits	-8720
▁heavily	-8721
▁reaches	-8722
▁welcome	-8723
▁boosting	-8724
▁mountain	-8725
▁seriously	-8726
▁investigators	-8727
3.	-8728
UP	-8729
roc	-8730
syl	-8731
vin	-8732
airn	-8733
oran	-8734
▁18-	-8735
▁Mao	-8736
▁NTT	-8737
arket	-8738
▁Barb	-8739
▁Barg	-8740
▁Burn	-8741
▁Sean	-8742
▁curb	-8743
▁gren	-8744
▁Climb	-8745
▁Fraud	-8746
▁Lynch	-8747
▁wider	-8748
initely	-8749
▁Orders	-8750
▁Walker	-8751
▁detain	-8752
▁perman	-8753
Chrysler	-8754
ancellor	-8755
ographic	-8756
▁Analyst	-8757
▁Comcast	-8758
▁Product	-8759
▁promote	-8760
▁someone	-8761
▁demanded	-8762
▁highlight	-8763
▁prompting	-8764
▁tentative	-8765
▁Investment	-8766
▁Switzerland	-8767
▁constitution	-8768
4.	-8769
ELD	-8770
mad	-8771
▁AS	-8772
bank	-8773
rets	-8774
wall	-8775
▁15,	-8776
▁Pop	-8777
▁WTA	-8778
▁Yen	-8779
folio	-8780
icate	-8781
orial	-8782
▁Like	-8783
▁Sale	-8784
ippers	-8785
▁2,000	-8786
▁Files	-8787
▁Funds	-8788
▁Ovitz	-8789
▁Right	-8790
▁anger	-8791
▁fully	-8792
▁prior	-8793
▁yield	-8794
aughter	-8795
ruction	-8796
unction	-8797
▁Compet	-8798
▁Orange	-8799
▁estate	-8800
▁finger	-8801
▁remove	-8802
▁rocked	-8803
▁simple	-8804
▁simply	-8805
▁slowed	-8806
▁Finland	-8807
▁Kennedy	-8808
▁Merrill	-8809
▁coordin	-8810
▁preview	-8811
▁Soldiers	-8812
▁prospect	-8813
▁communist	-8814
▁deadliest	-8815
▁commitment	-8816
▁PHILADELPHIA	-8817
22	-8818
75	-8819
▁Ly	-8820
scar	-8821
ukee	-8822
▁Own	-8823
▁cos	-8824
▁sle	-8825
Money	-8826
acted	-8827
ingly	-8828
oster	-8829
▁Aziz	-8830
▁Cour	-8831
▁hero	-8832
AKARTA	-8833
arrass	-8834
▁Costs	-8835
▁Strug	-8836
▁escal	-8837
▁fails	-8838
▁merge	-8839
▁scene	-8840
▁Marion	-8841
▁Padres	-8842
▁Trojan	-8843
▁Yankee	-8844
▁establ	-8845
▁places	-8846
▁Markets	-8847
▁Special	-8848
▁comment	-8849
▁exactly	-8850
▁reading	-8851
▁reflect	-8852
▁winners	-8853
▁improper	-8854
▁intended	-8855
▁Announces	-8856
▁Ukrainian	-8857
▁proposals	-8858
▁searching	-8859
▁consortium	-8860
▁DaimlerChrysler	-8861
IEW	-8862
eor	-8863
with	-8864
▁1/2	-8865
▁Aff	-8866
▁Sal	-8867
▁Tem	-8868
owned	-8869
▁Only	-8870
▁Sett	-8871
▁disk	-8872
▁else	-8873
▁rape	-8874
▁ride	-8875
▁sche	-8876
overty	-8877
rystal	-8878
▁2006.	-8879
▁Mixed	-8880
▁Opens	-8881
▁Randy	-8882
▁Rates	-8883
▁advoc	-8884
▁audio	-8885
▁stood	-8886
▁height	-8887
sylvania	-8888
▁Pirates	-8889
▁jobless	-8890
▁rushing	-8891
▁defended	-8892
▁refugees	-8893
▁weakness	-8894
▁breakthrough	-8895
70	-8896
/11	-8897
agn	-8898
ira	-8899
kar	-8900
win	-8901
▁Ru	-8902
Tech	-8903
aith	-8904
otte	-8905
ping	-8906
stri	-8907
▁Sky	-8908
idays	-8909
▁Less	-8910
▁Mutu	-8911
▁Roma	-8912
▁Town	-8913
▁feed	-8914
▁toss	-8915
▁Focus	-8916
▁Heart	-8917
▁Musab	-8918
▁horse	-8919
ratings	-8920
▁Custom	-8921
▁PayPal	-8922
▁Proble	-8923
▁aiming	-8924
▁soared	-8925
▁ticket	-8926
▁Preview	-8927
▁Success	-8928
▁Prosecut	-8929
▁discovery	-8930
▁recommend	-8931
Bl	-8932
:30	-8933
CNN	-8934
IFA	-8935
iat	-8936
rie	-8937
▁54	-8938
▁6,	-8939
▁Bh	-8940
▁CF	-8941
▁PA	-8942
hent	-8943
▁12-	-8944
▁Ash	-8945
▁Bow	-8946
▁Flu	-8947
▁Log	-8948
▁bow	-8949
▁eve	-8950
chiro	-8951
rants	-8952
riage	-8953
▁6-2,	-8954
▁Fish	-8955
▁Hugo	-8956
▁bond	-8957
▁disp	-8958
▁exit	-8959
▁loan	-8960
▁neck	-8961
▁pool	-8962
50,000	-8963
waukee	-8964
▁Award	-8965
▁Cuban	-8966
▁Devil	-8967
▁Reach	-8968
▁hoped	-8969
▁learn	-8970
▁lifts	-8971
▁Arsene	-8972
▁beaten	-8973
▁bloody	-8974
▁doubts	-8975
▁baseman	-8976
▁caution	-8977
▁athletes	-8978
▁Milwaukee	-8979
▁factories	-8980
▁governing	-8981
▁regarding	-8982
▁insurgency	-8983
35	-8984
OSE	-8985
irk	-8986
▁BC	-8987
▁20,	-8988
▁64-	-8989
▁dre	-8990
▁Both	-8991
▁Parm	-8992
▁flag	-8993
estyle	-8994
icient	-8995
▁Favre	-8996
▁Grizz	-8997
▁older	-8998
biggest	-8999
▁Portug	-9000
▁Rwanda	-9001
▁finals	-9002
▁govern	-9003
▁regime	-9004
▁suspic	-9005
▁Belgium	-9006
▁JAKARTA	-9007
▁Trading	-9008
▁quietly	-9009
▁student	-9010
▁district	-9011
▁recorded	-9012
▁Christian	-9013
▁Northwest	-9014
▁recovered	-9015
▁Protection	-9016
▁processing	-9017
QL	-9018
cr	-9019
ASE	-9020
OME	-9021
iec	-9022
▁6-	-9023
▁AF	-9024
BALL	-9025
▁Haw	-9026
▁LOU	-9027
▁PDA	-9028
▁Try	-9029
atile	-9030
▁Eyes	-9031
▁Push	-9032
▁rush	-9033
▁sues	-9034
▁wage	-9035
atched	-9036
friend	-9037
iences	-9038
▁Breed	-9039
▁Ernie	-9040
▁fires	-9041
▁Artest	-9042
▁Ichiro	-9043
▁Nation	-9044
▁poison	-9045
▁pretty	-9046
▁stroke	-9047
▁Advance	-9048
▁Falcons	-9049
▁Worries	-9050
▁forcing	-9051
▁gaining	-9052
▁typhoon	-9053
▁Cambodia	-9054
▁Hostages	-9055
▁Manufact	-9056
▁abducted	-9057
▁Following	-9058
▁Grizzlies	-9059
▁Quarterly	-9060
▁destroyed	-9061
▁struggles	-9062
▁aggressive	-9063
▁conspiracy	-9064
▁journalist	-9065
▁replacement	-9066
▁Pennsylvania	-9067
pen	-9068
cats	-9069
irst	-9070
▁Mir	-9071
▁Ort	-9072
▁See	-9073
▁Shr	-9074
▁aer	-9075
▁ber	-9076
▁roy	-9077
ially	-9078
style	-9079
▁Flaw	-9080
▁Spot	-9081
▁Toll	-9082
▁Treo	-9083
▁Vers	-9084
▁park	-9085
ociety	-9086
uggets	-9087
▁Light	-9088
▁Night	-9089
▁flaws	-9090
▁ranks	-9091
▁regis	-9092
▁steal	-9093
lusconi	-9094
▁Access	-9095
▁Agrees	-9096
▁Langer	-9097
▁kicked	-9098
▁reveal	-9099
▁Through	-9100
▁expands	-9101
▁imposed	-9102
▁starter	-9103
▁stormed	-9104
▁Chrysler	-9105
▁Governor	-9106
▁Machines	-9107
▁actually	-9108
▁optimism	-9109
▁replaced	-9110
▁survived	-9111
newratings	-9112
▁Charlotte	-9113
▁prosecutor	-9114
▁surrounding	-9115
▁humanitarian	-9116
As	-9117
ha	-9118
akh	-9119
ubs	-9120
uez	-9121
▁7,	-9122
▁DR	-9123
▁Sa	-9124
iety	-9125
▁Jen	-9126
▁TEH	-9127
▁err	-9128
▁Cash	-9129
▁brew	-9130
▁ones	-9131
ateral	-9132
double	-9133
▁Anwar	-9134
▁Belar	-9135
▁trust	-9136
olesale	-9137
oration	-9138
▁Merger	-9139
▁Senior	-9140
▁native	-9141
▁upbeat	-9142
▁comprom	-9143
▁extends	-9144
▁hopeful	-9145
▁pricing	-9146
▁tsunami	-9147
▁battered	-9148
▁original	-9149
▁expensive	-9150
▁materials	-9151
▁subsidies	-9152
▁Berlusconi	-9153
▁connections	-9154
EE	-9155
OH	-9156
de	-9157
AST	-9158
IBM	-9159
▁44	-9160
anim	-9161
omet	-9162
stan	-9163
▁30,	-9164
▁Aud	-9165
▁BAR	-9166
▁Edd	-9167
▁ded	-9168
▁hij	-9169
▁rig	-9170
ineon	-9171
ookie	-9172
▁Blog	-9173
▁Earn	-9174
▁junk	-9175
▁stir	-9176
ighter	-9177
ivirus	-9178
racuse	-9179
▁#36;4	-9180
▁Beach	-9181
▁Bombs	-9182
▁Brand	-9183
▁Fredd	-9184
▁Soyuz	-9185
▁Venus	-9186
▁steam	-9187
itoring	-9188
▁Rising	-9189
▁compat	-9190
▁discip	-9191
▁impose	-9192
▁signal	-9193
▁Rejects	-9194
▁Rockies	-9195
▁healthy	-9196
▁Syracuse	-9197
▁happened	-9198
▁prompted	-9199
▁exporters	-9200
▁licensing	-9201
36	-9202
Day	-9203
ORT	-9204
abe	-9205
OLIS	-9206
ORCL	-9207
chip	-9208
ishi	-9209
lton	-9210
mind	-9211
rant	-9212
uals	-9213
▁IRA	-9214
▁Mln	-9215
▁PLC	-9216
▁Pav	-9217
▁Rub	-9218
▁Was	-9219
▁map	-9220
andan	-9221
gment	-9222
▁Pres	-9223
▁Spur	-9224
▁\$12	-9225
▁aide	-9226
▁buzz	-9227
▁warn	-9228
lining	-9229
▁Cable	-9230
▁Month	-9231
▁Straw	-9232
▁cyber	-9233
▁style	-9234
uctions	-9235
▁Voters	-9236
▁pushes	-9237
▁repeat	-9238
▁satisf	-9239
▁severe	-9240
▁vision	-9241
▁Mexican	-9242
▁Mission	-9243
▁Nuggets	-9244
▁marking	-9245
▁removed	-9246
▁rolling	-9247
▁Portable	-9248
▁Elections	-9249
▁relatives	-9250
▁temporary	-9251
▁diplomatic	-9252
▁foreigners	-9253
▁linebacker	-9254
▁midfielder	-9255
▁destruction	-9256
Cl	-9257
avi	-9258
UTER	-9259
Week	-9260
▁1.5	-9261
▁Dom	-9262
▁Dur	-9263
▁Eye	-9264
▁ICC	-9265
▁Luk	-9266
▁MVP	-9267
uable	-9268
▁desk	-9269
▁dust	-9270
▁mour	-9271
▁slip	-9272
ospace	-9273
usalem	-9274
▁Drops	-9275
▁Ortiz	-9276
▁Tests	-9277
▁minor	-9278
▁shrug	-9279
▁swept	-9280
▁BERLIN	-9281
▁Begins	-9282
▁Double	-9283
▁Employ	-9284
▁ballot	-9285
▁buyers	-9286
▁incent	-9287
▁inform	-9288
▁resort	-9289
Thursday	-9290
errillas	-9291
▁Account	-9292
▁Changes	-9293
▁Experts	-9294
▁channel	-9295
▁insurer	-9296
▁stalled	-9297
▁Infineon	-9298
▁Mourinho	-9299
▁Robinson	-9300
▁insurers	-9301
▁thinking	-9302
▁administr	-9303
▁disclosed	-9304
▁determined	-9305
▁newspapers	-9306
▁resistance	-9307
▁supporting	-9308
▁representing	-9309
▁assassination	-9310
xy	-9311
ita	-9312
uzz	-9313
▁77	-9314
▁9,	-9315
▁Li	-9316
▁la	-9317
UKOS	-9318
body	-9319
ello	-9320
isse	-9321
raib	-9322
yang	-9323
▁Mig	-9324
▁Sus	-9325
kswag	-9326
ubbed	-9327
▁Late	-9328
▁Pope	-9329
▁Sues	-9330
▁snap	-9331
Valley	-9332
irming	-9333
▁Crash	-9334
▁Local	-9335
▁Magic	-9336
▁Moham	-9337
▁Ocean	-9338
▁Virus	-9339
▁alone	-9340
▁birds	-9341
▁haven	-9342
▁route	-9343
kswagen	-9344
▁During	-9345
▁Ghraib	-9346
▁Holmes	-9347
▁checks	-9348
▁easing	-9349
▁object	-9350
▁visits	-9351
▁weekly	-9352
▁ballots	-9353
▁guarant	-9354
▁pounded	-9355
▁function	-9356
▁Louisiana	-9357
▁deployment	-9358
abs	-9359
oum	-9360
▁GP	-9361
▁Po	-9362
arch	-9363
ffee	-9364
pond	-9365
▁Fur	-9366
▁Rut	-9367
▁Str	-9368
aware	-9369
encia	-9370
ieces	-9371
▁Exec	-9372
▁ramp	-9373
▁salv	-9374
▁tops	-9375
▁tyco	-9376
APOLIS	-9377
ubishi	-9378
▁Banks	-9379
▁Kings	-9380
▁Terry	-9381
▁Yanks	-9382
▁angry	-9383
▁berth	-9384
▁colle	-9385
▁reput	-9386
▁Polish	-9387
▁Totten	-9388
▁brands	-9389
▁hotels	-9390
▁versus	-9391
▁Continu	-9392
▁restrict	-9393
▁Blackburn	-9394
▁Jerusalem	-9395
▁Tottenham	-9396
▁competing	-9397
▁embarrass	-9398
▁malicious	-9399
▁Louisville	-9400
▁Volkswagen	-9401
▁criticized	-9402
▁employment	-9403
▁eventually	-9404
▁enforcement	-9405
▁spokeswoman	-9406
LA	-9407
On	-9408
800	-9409
\$1	-9410
▁52	-9411
▁56	-9412
PSFT	-9413
hnic	-9414
▁3-2	-9415
▁ABC	-9416
▁EDS	-9417
▁Fun	-9418
▁Jet	-9419
▁Kel	-9420
▁gad	-9421
claim	-9422
osure	-9423
▁Adam	-9424
▁Issu	-9425
▁Poor	-9426
▁Prof	-9427
▁Said	-9428
▁dict	-9429
▁scan	-9430
▁soph	-9431
ulting	-9432
▁Firms	-9433
▁Giant	-9434
▁LOUIS	-9435
▁Moves	-9436
▁Shawn	-9437
▁throw	-9438
▁Sender	-9439
▁ailing	-9440
▁asking	-9441
▁laptop	-9442
▁urging	-9443
▁Circuit	-9444
▁Guidant	-9445
▁Jamaica	-9446
▁respect	-9447
▁telling	-9448
▁dropping	-9449
▁threaten	-9450
▁visitors	-9451
▁Salvation	-9452
▁conducted	-9453
▁emissions	-9454
▁finishing	-9455
▁portfolio	-9456
▁prominent	-9457
▁solutions	-9458
BR	-9459
PM	-9460
IAA	-9461
azi	-9462
cts	-9463
▁1.	-9464
▁2.	-9465
▁67	-9466
▁af	-9467
abit	-9468
gets	-9469
hind	-9470
town	-9471
▁fro	-9472
▁rot	-9473
▁Pitc	-9474
▁Stop	-9475
▁Tend	-9476
alcomm	-9477
▁5,000	-9478
▁YUKOS	-9479
▁immig	-9480
▁phase	-9481
▁refin	-9482
▁seats	-9483
▁stuff	-9484
▁Bayern	-9485
▁Qantas	-9486
▁Should	-9487
▁Suzuki	-9488
▁boosts	-9489
▁extrad	-9490
▁hailed	-9491
▁captors	-9492
▁doubles	-9493
▁explain	-9494
▁pullout	-9495
▁trapped	-9496
▁various	-9497
▁beheaded	-9498
▁defender	-9499
▁genocide	-9500
▁automaker	-9501
▁evolution	-9502
▁exhibition	-9503
▁gymnastics	-9504
▁Commissioner	-9505
▁parliamentary	-9506
WMT	-9507
ucr	-9508
Life	-9509
irty	-9510
size	-9511
warz	-9512
wire	-9513
▁1.3	-9514
▁7-5	-9515
erver	-9516
isive	-9517
oured	-9518
rives	-9519
shore	-9520
▁Larg	-9521
▁Live	-9522
▁Moss	-9523
▁atop	-9524
▁enem	-9525
▁symb	-9526
hander	-9527
istent	-9528
▁Aaron	-9529
▁Think	-9530
▁craft	-9531
▁views	-9532
ongyang	-9533
▁Family	-9534
▁Michel	-9535
▁TEHRAN	-9536
▁buyout	-9537
▁miners	-9538
▁notice	-9539
▁Injured	-9540
▁grabbed	-9541
▁Spending	-9542
▁stunning	-9543
▁tourists	-9544
▁Santander	-9545
▁buildings	-9546
▁resources	-9547
▁submarine	-9548
▁profession	-9549
▁suggesting	-9550
▁electricity	-9551
▁improvement	-9552
▁;	-9553
BAI	-9554
▁(2	-9555
▁Ha	-9556
▁pm	-9557
onym	-9558
pper	-9559
unal	-9560
▁Cou	-9561
▁FBI	-9562
▁Few	-9563
EMBER	-9564
ional	-9565
itsch	-9566
start	-9567
▁Adds	-9568
▁Kidd	-9569
▁Purd	-9570
▁Slam	-9571
▁slug	-9572
▁sight	-9573
▁suite	-9574
terious	-9575
▁casino	-9576
▁fossil	-9577
▁rental	-9578
▁social	-9579
▁teleph	-9580
▁volume	-9581
▁wonder	-9582
mosphere	-9583
▁erupted	-9584
▁plunged	-9585
▁village	-9586
▁Jonathan	-9587
▁Mortgage	-9588
▁Pitcairn	-9589
▁Qualcomm	-9590
▁coverage	-9591
▁minority	-9592
▁establish	-9593
▁household	-9594
▁impressive	-9595
▁protesters	-9596
▁questioned	-9597
▁violations	-9598
▁investigate	-9599
▁particularly	-9600
3)	-9601
Ph	-9602
equ	-9603
▁AD	-9604
▁Dh	-9605
Afee	-9606
empt	-9607
otal	-9608
ture	-9609
will	-9610
▁ACC	-9611
▁Gam	-9612
▁SER	-9613
South	-9614
eeves	-9615
store	-9616
words	-9617
▁EBay	-9618
▁Emer	-9619
▁JOSE	-9620
▁Lowe	-9621
▁Prep	-9622
▁Rate	-9623
▁fill	-9624
▁gall	-9625
▁surr	-9626
▁wine	-9627
called	-9628
▁Arist	-9629
▁cloud	-9630
▁intel	-9631
▁shook	-9632
▁trail	-9633
umbling	-9634
▁MADRID	-9635
▁landed	-9636
▁mining	-9637
▁quoted	-9638
▁walked	-9639
▁Samarra	-9640
▁arrests	-9641
▁retreat	-9642
▁weighed	-9643
▁Valencia	-9644
▁directly	-9645
▁standing	-9646
▁stripped	-9647
▁Pyongyang	-9648
▁Venezuelan	-9649
MR	-9650
vy	-9651
.25	-9652
JAF	-9653
abb	-9654
asy	-9655
▁84	-9656
▁NV	-9657
alks	-9658
ateg	-9659
▁MGM	-9660
▁Yud	-9661
FIELD	-9662
WORLD	-9663
essed	-9664
idden	-9665
▁Code	-9666
▁Debt	-9667
▁Fool	-9668
▁Juan	-9669
▁Pers	-9670
▁Puts	-9671
▁Rena	-9672
▁Sent	-9673
▁Soun	-9674
▁\$15	-9675
▁hang	-9676
▁hire	-9677
▁lure	-9678
icsson	-9679
ouring	-9680
person	-9681
rising	-9682
▁Fears	-9683
▁Rival	-9684
▁fewer	-9685
perform	-9686
▁Master	-9687
▁buried	-9688
▁editor	-9689
▁newest	-9690
▁wouldn	-9691
▁Channel	-9692
▁Hornets	-9693
▁Liberty	-9694
▁Romania	-9695
▁surging	-9696
▁unusual	-9697
▁confirms	-9698
▁throwing	-9699
▁Suspected	-9700
▁activists	-9701
▁intellect	-9702
▁pollution	-9703
▁Industries	-9704
▁Description	-9705
▁Information	-9706
▁involvement	-9707
MA	-9708
RP	-9709
BOR	-9710
Mon	-9711
Pac	-9712
bat	-9713
▁4:	-9714
▁86	-9715
▁ax	-9716
cest	-9717
colm	-9718
elie	-9719
writ	-9720
▁Fis	-9721
▁Nat	-9722
atham	-9723
click	-9724
lipse	-9725
▁Care	-9726
▁Hist	-9727
▁Hope	-9728
▁Slow	-9729
▁biot	-9730
▁flew	-9731
▁laid	-9732
▁plug	-9733
idency	-9734
record	-9735
▁Bruce	-9736
▁Helps	-9737
▁Kreme	-9738
▁NAJAF	-9739
▁accus	-9740
▁deton	-9741
▁relay	-9742
▁slump	-9743
▁sweet	-9744
Jazeera	-9745
itschko	-9746
profile	-9747
▁Marine	-9748
▁Royals	-9749
▁broadc	-9750
▁medium	-9751
▁Belgian	-9752
▁Malcolm	-9753
▁Souness	-9754
▁Stanley	-9755
▁eclipse	-9756
▁edition	-9757
▁insists	-9758
▁outcome	-9759
▁poverty	-9760
▁rapidly	-9761
▁reveals	-9762
▁singles	-9763
▁Speedway	-9764
▁appealed	-9765
▁incident	-9766
▁indicted	-9767
▁teammate	-9768
▁eliminate	-9769
▁Mitsubishi	-9770
▁astronomers	-9771
▁devastating	-9772
▁acknowledged	-9773
UE	-9774
ALA	-9775
OUN	-9776
dge	-9777
hoy	-9778
▁CS	-9779
▁IA	-9780
INTC	-9781
brid	-9782
torn	-9783
▁CBS	-9784
▁Eth	-9785
▁Gal	-9786
▁Ger	-9787
▁MCI	-9788
▁Yet	-9789
▁Yug	-9790
alore	-9791
azers	-9792
leagu	-9793
▁BANG	-9794
▁Iyad	-9795
▁Lake	-9796
▁Once	-9797
▁Stat	-9798
▁Troy	-9799
▁crop	-9800
▁mand	-9801
▁repe	-9802
▁tact	-9803
▁tens	-9804
ecting	-9805
hoyono	-9806
ishers	-9807
omerie	-9808
ussels	-9809
▁Agree	-9810
▁Begin	-9811
▁Hawks	-9812
▁Tommy	-9813
▁lunar	-9814
reement	-9815
▁Alaska	-9816
▁Atomic	-9817
▁Blasts	-9818
▁abroad	-9819
▁conced	-9820
▁revive	-9821
▁wealth	-9822
▁Belarus	-9823
▁Gazprom	-9824
▁Jobless	-9825
▁Without	-9826
▁boycott	-9827
▁intense	-9828
▁jointly	-9829
▁monitor	-9830
▁mystery	-9831
▁Aristide	-9832
▁addition	-9833
▁engineer	-9834
▁phishing	-9835
▁steroids	-9836
▁withdrew	-9837
▁Klitschko	-9838
▁Malaysian	-9839
▁Yudhoyono	-9840
▁ambitions	-9841
▁receiving	-9842
▁standings	-9843
▁atmosphere	-9844
▁politicians	-9845
▁settlements	-9846
▁Presidential	-9847
▁quarterfinals	-9848
IO	-9849
gun	-9850
rum	-9851
draw	-9852
enst	-9853
omed	-9854
▁16-	-9855
▁4-0	-9856
▁Fuj	-9857
▁Ian	-9858
▁Pey	-9859
▁hus	-9860
▁lon	-9861
bucks	-9862
compl	-9863
isers	-9864
rical	-9865
▁Alab	-9866
▁Anim	-9867
▁Outs	-9868
▁baby	-9869
▁mini	-9870
▁Brett	-9871
▁Legal	-9872
▁Using	-9873
▁\$1.3	-9874
▁eager	-9875
▁elite	-9876
▁motor	-9877
▁overc	-9878
▁raids	-9879
porting	-9880
rolling	-9881
▁Barrel	-9882
▁Cooper	-9883
▁courts	-9884
▁emerge	-9885
▁limits	-9886
▁locked	-9887
▁remind	-9888
▁robust	-9889
▁superm	-9890
▁Brewers	-9891
▁Limited	-9892
▁Looking	-9893
▁Schwarz	-9894
leaguered	-9895
▁Anderson	-9896
▁Catholic	-9897
▁Ericsson	-9898
▁Marathon	-9899
▁Personal	-9900
▁entering	-9901
▁neighbor	-9902
▁Rodriguez	-9903
▁certainly	-9904
▁hamstring	-9905
▁indicated	-9906
▁replacing	-9907
▁completing	-9908
▁outfielder	-9909
▁Montgomerie	-9910
GO	-9911
Pr	-9912
do	-9913
ho	-9914
ANA	-9915
ods	-9916
▁47	-9917
▁8,	-9918
▁FO	-9919
iffs	-9920
irez	-9921
oked	-9922
ouri	-9923
▁250	-9924
▁Rac	-9925
▁tor	-9926
▁tun	-9927
ulkar	-9928
▁Slip	-9929
▁Surv	-9930
▁Wolf	-9931
▁\$11	-9932
▁flex	-9933
▁tend	-9934
▁woes	-9935
orders	-9936
ustody	-9937
▁2006,	-9938
▁Seoul	-9939
▁Tough	-9940
▁cheap	-9941
▁trees	-9942
▁undis	-9943
▁usual	-9944
▁Krispy	-9945
▁Purdue	-9946
▁Rafael	-9947
▁Timber	-9948
▁choose	-9949
▁ripped	-9950
▁slower	-9951
▁tycoon	-9952
▁Hitachi	-9953
▁Ramirez	-9954
▁Renault	-9955
▁assists	-9956
▁cheaper	-9957
▁dealers	-9958
▁planets	-9959
▁premier	-9960
▁signals	-9961
▁tickets	-9962
Wednesday	-9963
▁Progress	-9964
▁changing	-9965
▁clinched	-9966
▁managing	-9967
▁negative	-9968
▁Starbucks	-9969
▁direction	-9970
▁celebrated	-9971
▁concessions	-9972
▁integration	-9973
▁availability	-9974
45	-9975
SH	-9976
UA	-9977
jo	-9978
onz	-9979
umm	-9980
▁5,	-9981
▁63	-9982
COMP	-9983
GOOG	-9984
alat	-9985
quel	-9986
zone	-9987
▁GDP	-9988
▁RAM	-9989
▁SEP	-9990
▁TVs	-9991
Point	-9992
endar	-9993
erred	-9994
scale	-9995
shire	-9996
▁Bamb	-9997
▁Mill	-9998
▁Want	-9999
▁\$49	-10000
▁cong	-10001
▁spre	-10002
▁topp	-10003
▁upon	-10004
▁wall	-10005
artoum	-10006
itable	-10007
linked	-10008
screen	-10009
▁#146;	-10010
▁Baker	-10011
▁Fidel	-10012
▁Guill	-10013
▁Meyer	-10014
▁Organ	-10015
▁Sharp	-10016
▁picks	-10017
▁princ	-10018
▁scare	-10019
▁shape	-10020
running	-10021
▁Philip	-10022
▁Viacom	-10023
▁ethnic	-10024
▁handle	-10025
▁retain	-10026
▁roster	-10027
▁seeing	-10028
ilateral	-10029
▁Islands	-10030
▁Lawyers	-10031
▁Missile	-10032
▁husband	-10033
▁Breeders	-10034
▁Interest	-10035
▁advances	-10036
▁controls	-10037
▁overcome	-10038
▁overshad	-10039
▁substant	-10040
▁suddenly	-10041
▁teenager	-10042
▁InfoWorld	-10043
▁Retailers	-10044
▁inaugural	-10045
▁sustained	-10046
▁challenger	-10047
▁Instruments	-10048
▁pharmaceutical	-10049
ANS	-10050
ARD	-10051
ICH	-10052
des	-10053
hat	-10054
olt	-10055
rog	-10056
▁Sr	-10057
▁fu	-10058
gian	-10059
irts	-10060
nets	-10061
oons	-10062
ules	-10063
▁Bah	-10064
▁Cre	-10065
▁Neg	-10066
erald	-10067
gtime	-10068
hardt	-10069
iform	-10070
opper	-10071
party	-10072
▁Fred	-10073
▁Maur	-10074
▁\$25	-10075
▁kidn	-10076
▁scam	-10077
omberg	-10078
▁Antar	-10079
▁Debut	-10080
▁Forum	-10081
▁Latin	-10082
▁Shoot	-10083
▁bases	-10084
▁chase	-10085
▁verge	-10086
▁vital	-10087
▁McAfee	-10088
▁Peyton	-10089
▁Syrian	-10090
▁endors	-10091
▁enters	-10092
▁happen	-10093
▁manned	-10094
▁mortar	-10095
▁suffer	-10096
COMPUTER	-10097
▁Freddie	-10098
▁Private	-10099
▁balance	-10100
▁barrels	-10101
▁bidding	-10102
▁hunting	-10103
▁Tropical	-10104
▁counting	-10105
▁missiles	-10106
▁publicly	-10107
▁recalled	-10108
▁settlers	-10109
▁shortage	-10110
▁Earnhardt	-10111
▁concluded	-10112
▁inventory	-10113
▁workforce	-10114
▁economists	-10115
▁understand	-10116
COMPUTERWORLD	-10117
▁significantly	-10118
DAM	-10119
TEM	-10120
aky	-10121
ani	-10122
isp	-10123
leb	-10124
tax	-10125
umi	-10126
▁96	-10127
▁BU	-10128
BOUR	-10129
edge	-10130
heed	-10131
idia	-10132
kept	-10133
ripp	-10134
umes	-10135
▁Jud	-10136
▁dog	-10137
▁Gall	-10138
▁KONG	-10139
▁MONT	-10140
▁Unix	-10141
▁gift	-10142
▁intr	-10143
▁nerv	-10144
▁sear	-10145
resent	-10146
▁Alber	-10147
▁Regul	-10148
▁Rossi	-10149
▁Trail	-10150
▁Warri	-10151
▁blade	-10152
▁greet	-10153
▁slash	-10154
▁waves	-10155
▁Making	-10156
▁Maoist	-10157
▁Rookie	-10158
▁Rovers	-10159
▁boxing	-10160
▁fallen	-10161
▁normal	-10162
▁spirit	-10163
▁volcan	-10164
▁Alabama	-10165
▁Ontario	-10166
▁Symbian	-10167
▁settles	-10168
▁Approves	-10169
▁Brussels	-10170
▁Homeland	-10171
▁rankings	-10172
▁tensions	-10173
▁Alexander	-10174
▁Resources	-10175
▁interests	-10176
▁observers	-10177
▁penalties	-10178
▁producing	-10179
▁spotlight	-10180
▁contractor	-10181
ART	-10182
IDS	-10183
aus	-10184
▁(4	-10185
▁(7	-10186
▁OR	-10187
▁SU	-10188
Halo	-10189
Russ	-10190
▁17,	-10191
▁BEA	-10192
▁Sug	-10193
▁Too	-10194
iebel	-10195
▁Dave	-10196
▁Schw	-10197
▁Soft	-10198
▁forg	-10199
▁peak	-10200
▁shed	-10201
▁warm	-10202
ultane	-10203
wolves	-10204
▁Looks	-10205
▁Where	-10206
▁lived	-10207
▁pulls	-10208
▁punch	-10209
mitting	-10210
otional	-10211
▁Likely	-10212
▁Rights	-10213
▁Viktor	-10214
▁admits	-10215
▁finale	-10216
▁animals	-10217
▁authent	-10218
▁awaited	-10219
▁damaged	-10220
▁longest	-10221
▁posting	-10222
▁resigns	-10223
elsewhere	-10224
▁Khartoum	-10225
▁Spurrier	-10226
▁agreeing	-10227
▁dominate	-10228
▁occupied	-10229
▁repeated	-10230
▁Islamabad	-10231
▁Telescope	-10232
▁condemned	-10233
▁distribut	-10234
▁Revolution	-10235
▁billionaire	-10236
▁engineering	-10237
An	-10238
VA	-10239
▁WR	-10240
VICE	-10241
enna	-10242
ifer	-10243
▁12,	-10244
▁5-1	-10245
▁6-0	-10246
▁BHP	-10247
▁Kan	-10248
▁Rat	-10249
▁Sex	-10250
▁unh	-10251
ayers	-10252
eller	-10253
ierre	-10254
▁HONG	-10255
▁Nine	-10256
▁Risk	-10257
▁jets	-10258
agging	-10259
bridge	-10260
enstam	-10261
rained	-10262
▁Drugs	-10263
▁Fleet	-10264
▁Maver	-10265
▁Money	-10266
▁Opter	-10267
▁basis	-10268
▁chaos	-10269
▁equal	-10270
▁Bernie	-10271
▁Issues	-10272
▁chosen	-10273
▁disrup	-10274
▁enable	-10275
▁judges	-10276
▁length	-10277
▁stayed	-10278
▁unable	-10279
▁unrest	-10280
▁Content	-10281
▁Fischer	-10282
▁Holding	-10283
▁Madison	-10284
▁SERVICE	-10285
▁actions	-10286
▁contact	-10287
▁defends	-10288
▁enhance	-10289
▁pulling	-10290
▁pursuit	-10291
▁Assembly	-10292
▁Aviation	-10293
▁Clippers	-10294
▁cellular	-10295
▁Sorenstam	-10296
▁Tendulkar	-10297
▁disappear	-10298
▁surprised	-10299
▁warplanes	-10300
▁Kidnappers	-10301
▁relatively	-10302
▁reputation	-10303
▁Manufacturing	-10304
Ind	-10305
afi	-10306
bec	-10307
fax	-10308
ols	-10309
▁Da	-10310
▁Ib	-10311
▁PR	-10312
▁WH	-10313
VIEW	-10314
ardy	-10315
sych	-10316
▁ATP	-10317
▁Max	-10318
▁Sar	-10319
aders	-10320
agued	-10321
attan	-10322
ether	-10323
utton	-10324
▁Lind	-10325
▁Slov	-10326
▁Then	-10327
▁shop	-10328
▁unle	-10329
nation	-10330
taking	-10331
▁Backs	-10332
▁Bargh	-10333
▁Jerem	-10334
▁Norwe	-10335
▁Plane	-10336
▁extin	-10337
▁steep	-10338
Tuesday	-10339
▁Conrad	-10340
▁belong	-10341
▁fueled	-10342
▁houses	-10343
▁shadow	-10344
▁Goldman	-10345
▁Picture	-10346
▁closest	-10347
▁farmers	-10348
▁freedom	-10349
▁analysis	-10350
▁quarters	-10351
▁required	-10352
▁Represent	-10353
▁collapsed	-10354
▁favourite	-10355
▁necessary	-10356
▁releasing	-10357
▁Bankruptcy	-10358
▁ambassador	-10359
▁permission	-10360
▁vulnerable	-10361
▁championships	-10362
.75	-10363
AMI	-10364
IDG	-10365
ala	-10366
oly	-10367
▁74	-10368
▁99	-10369
▁aw	-10370
FORD	-10371
STER	-10372
amin	-10373
eted	-10374
food	-10375
iano	-10376
odes	-10377
oser	-10378
pson	-10379
sets	-10380
▁Fel	-10381
▁bon	-10382
▁cow	-10383
▁unw	-10384
otive	-10385
rokes	-10386
▁1980	-10387
▁Bali	-10388
▁JPEG	-10389
▁Lith	-10390
▁Manh	-10391
▁drew	-10392
▁ling	-10393
▁wars	-10394
alling	-10395
endant	-10396
etooth	-10397
inting	-10398
▁Arena	-10399
▁FedEx	-10400
▁Paula	-10401
▁fines	-10402
▁hydro	-10403
▁marks	-10404
▁Action	-10405
▁Jeeves	-10406
▁Saints	-10407
▁Schwab	-10408
▁Siebel	-10409
▁ranked	-10410
▁rating	-10411
▁scheme	-10412
▁stolen	-10413
▁studio	-10414
▁temper	-10415
▁videot	-10416
▁writer	-10417
▁Haitian	-10418
▁Pension	-10419
▁Protest	-10420
▁Venture	-10421
▁acceler	-10422
▁feeling	-10423
▁lifting	-10424
▁rivalry	-10425
irmingham	-10426
▁Delaware	-10427
▁Peterson	-10428
▁Stanford	-10429
▁audience	-10430
▁Mickelson	-10431
▁complaint	-10432
▁elsewhere	-10433
▁exclusive	-10434
▁northeast	-10435
▁sometimes	-10436
▁survivors	-10437
▁triggered	-10438
▁earthquakes	-10439
▁Jacksonville	-10440
▁vulnerabilities	-10441
Mic	-10442
SBC	-10443
appy	-10444
feit	-10445
mand	-10446
rent	-10447
▁Ele	-10448
▁Esc	-10449
▁Jos	-10450
▁MLB	-10451
▁Nag	-10452
▁Tob	-10453
▁ric	-10454
ewell	-10455
izumi	-10456
▁FALL	-10457
▁Fact	-10458
▁Hamp	-10459
▁McGr	-10460
▁bloc	-10461
▁kids	-10462
▁slid	-10463
▁Freed	-10464
▁MIAMI	-10465
▁Movie	-10466
▁Qwest	-10467
▁items	-10468
igation	-10469
▁Candid	-10470
▁Retire	-10471
▁Rocket	-10472
▁Ronald	-10473
▁Spring	-10474
▁Summer	-10475
▁formed	-10476
▁listed	-10477
▁struct	-10478
▁treaty	-10479
▁Chapter	-10480
▁Charlie	-10481
▁Lithuan	-10482
▁Mercury	-10483
▁Targets	-10484
▁inspect	-10485
▁regions	-10486
▁slashed	-10487
▁Children	-10488
▁approves	-10489
▁Norwegian	-10490
▁authority	-10491
▁batteries	-10492
▁employers	-10493
▁permanent	-10494
▁MacCentral	-10495
▁negotiating	-10496
▁Timberwolves	-10497
▁conservative	-10498
▁prescription	-10499
▁professionals	-10500
LY	-10501
vo	-10502
afe	-10503
amy	-10504
eds	-10505
mon	-10506
utt	-10507
▁(5	-10508
▁3:	-10509
▁68	-10510
Book	-10511
bell	-10512
bird	-10513
iate	-10514
otic	-10515
plus	-10516
ylum	-10517
▁Nev	-10518
▁PSP	-10519
▁spy	-10520
found	-10521
▁9/11	-10522
▁Alco	-10523
▁DVDs	-10524
▁Film	-10525
▁Greg	-10526
▁Hend	-10527
▁Rick	-10528
▁bail	-10529
▁tall	-10530
▁torn	-10531
▁wire	-10532
acular	-10533
▁Danny	-10534
▁adopt	-10535
▁films	-10536
▁fract	-10537
▁girls	-10538
▁hosts	-10539
▁lying	-10540
▁pages	-10541
▁scale	-10542
▁spoke	-10543
▁Appeal	-10544
▁afford	-10545
▁gamers	-10546
▁Returns	-10547
▁adopted	-10548
▁article	-10549
▁silicon	-10550
bitration	-10551
▁Releases	-10552
▁expenses	-10553
▁standoff	-10554
▁gathering	-10555
▁suspicion	-10556
▁violating	-10557
doubleclick	-10558
▁Harrington	-10559
▁delegation	-10560
▁endangered	-10561
▁monitoring	-10562
▁intellectual	-10563
OB	-10564
-14	-10565
NBA	-10566
boy	-10567
jet	-10568
osa	-10569
zed	-10570
▁Du	-10571
▁UC	-10572
bour	-10573
moil	-10574
olas	-10575
▁BLO	-10576
▁Fat	-10577
▁Sac	-10578
▁bag	-10579
ALLAH	-10580
inhua	-10581
onage	-10582
rahim	-10583
ullah	-10584
▁Dere	-10585
▁FIFA	-10586
▁Pact	-10587
▁Suns	-10588
▁Yush	-10589
▁swap	-10590
TEMBER	-10591
▁Among	-10592
▁Ports	-10593
▁Serge	-10594
▁asset	-10595
▁dress	-10596
▁simpl	-10597
itation	-10598
nington	-10599
selling	-10600
▁Conoco	-10601
▁Hispan	-10602
▁accord	-10603
▁hammer	-10604
▁microp	-10605
▁pursue	-10606
▁remark	-10607
▁reward	-10608
▁trucks	-10609
▁unanim	-10610
▁Fernand	-10611
▁Jaguars	-10612
▁Leading	-10613
▁Missing	-10614
▁Rwandan	-10615
▁carries	-10616
▁centers	-10617
▁conglom	-10618
▁custody	-10619
▁divided	-10620
▁pledges	-10621
▁revenge	-10622
▁surpass	-10623
▁resident	-10624
▁SEPTEMBER	-10625
▁dominance	-10626
▁intention	-10627
▁milestone	-10628
▁Birmingham	-10629
▁Willingham	-10630
▁facilities	-10631
▁experimental	-10632
8;	-10633
NL	-10634
New	-10635
dam	-10636
rex	-10637
vis	-10638
▁BP	-10639
▁EC	-10640
Iraq	-10641
eefe	-10642
free	-10643
hand	-10644
imum	-10645
rino	-10646
ynam	-10647
▁Ads	-10648
▁BAL	-10649
▁LLC	-10650
▁Tow	-10651
▁arr	-10652
isman	-10653
▁Coal	-10654
▁Cole	-10655
▁Infl	-10656
▁Kurd	-10657
▁Mahm	-10658
▁jour	-10659
▁scra	-10660
amples	-10661
▁7,000	-10662
▁Derek	-10663
▁Drive	-10664
▁Hotel	-10665
▁Optim	-10666
▁\$200	-10667
▁clues	-10668
▁Amelie	-10669
▁Guilty	-10670
▁Jeremy	-10671
▁McNair	-10672
▁arrive	-10673
▁bridge	-10674
▁escape	-10675
▁filled	-10676
▁slowly	-10677
▁tracks	-10678
▁Country	-10679
▁Defence	-10680
▁Opteron	-10681
▁Telstra	-10682
▁grenade	-10683
▁meaning	-10684
▁pioneer	-10685
▁resumed	-10686
▁sitting	-10687
▁updated	-10688
▁assembly	-10689
▁estimate	-10690
▁marriage	-10691
▁overcame	-10692
▁Bangalore	-10693
▁Bluetooth	-10694
▁telephony	-10695
▁Federation	-10696
▁Yushchenko	-10697
▁mysterious	-10698
▁vulnerability	-10699
Ar	-10700
mn	-10701
na	-10702
300	-10703
esl	-10704
ube	-10705
Mail	-10706
apon	-10707
repr	-10708
wing	-10709
▁0.1	-10710
▁14,	-10711
▁Bee	-10712
▁CIA	-10713
▁Hil	-10714
▁Joh	-10715
▁Kuz	-10716
▁Wat	-10717
▁bes	-10718
▁mix	-10719
Works	-10720
imony	-10721
itals	-10722
▁Aims	-10723
▁Core	-10724
▁Deep	-10725
▁Farm	-10726
▁Kath	-10727
▁Omar	-10728
▁flow	-10729
▁grip	-10730
▁icon	-10731
▁note	-10732
▁sout	-10733
▁wear	-10734
Monday	-10735
bestos	-10736
imbled	-10737
▁Above	-10738
▁Medic	-10739
▁bound	-10740
▁brows	-10741
▁embry	-10742
▁floor	-10743
▁worms	-10744
general	-10745
▁Behind	-10746
▁Critic	-10747
▁Graeme	-10748
▁Ground	-10749
▁Kazakh	-10750
▁Ruling	-10751
▁advice	-10752
▁divers	-10753
▁Climate	-10754
▁Koizumi	-10755
▁Warning	-10756
▁achieve	-10757
▁however	-10758
▁battling	-10759
▁charging	-10760
▁massacre	-10761
▁upgrades	-10762
▁volatile	-10763
▁Europeans	-10764
▁Northeast	-10765
▁Political	-10766
▁abandoned	-10767
▁acquiring	-10768
▁electoral	-10769
▁Pennington	-10770
▁casualties	-10771
▁guerrillas	-10772
▁counterpart	-10773
▁disruptions	-10774
▁televisions	-10775
armaceuticals	-10776
-13	-10777
DVD	-10778
gar	-10779
kom	-10780
▁''	-10781
▁88	-10782
▁89	-10783
▁Dw	-10784
▁FM	-10785
▁Ho	-10786
Card	-10787
mare	-10788
onic	-10789
sequ	-10790
▁16,	-10791
▁JOH	-10792
▁ink	-10793
▁tob	-10794
ascus	-10795
▁Kurt	-10796
▁Vows	-10797
▁\$1.	-10798
▁damp	-10799
▁pays	-10800
▁sort	-10801
▁touc	-10802
indsay	-10803
stream	-10804
umbles	-10805
vision	-10806
▁BLOOM	-10807
▁Front	-10808
▁Jamal	-10809
▁Leave	-10810
▁Maine	-10811
▁Porto	-10812
▁Skype	-10813
▁Wells	-10814
▁ambit	-10815
▁drama	-10816
▁draws	-10817
▁indef	-10818
▁reass	-10819
▁tanks	-10820
winning	-10821
▁Bridge	-10822
▁Button	-10823
▁Cancer	-10824
▁Execut	-10825
▁Wright	-10826
▁doctor	-10827
▁sights	-10828
imbledon	-10829
▁Ibrahim	-10830
▁Lindsay	-10831
▁arrival	-10832
▁blocked	-10833
▁library	-10834
▁tobacco	-10835
▁written	-10836
▁Islamist	-10837
▁clearing	-10838
▁clinical	-10839
▁Colombian	-10840
▁Manhattan	-10841
▁encounter	-10842
▁filmmaker	-10843
▁provision	-10844
▁strongest	-10845
▁Settlement	-10846
▁agreements	-10847
▁uncertainty	-10848
KE	-10849
iS	-10850
▁OC	-10851
ETRO	-10852
enne	-10853
rock	-10854
uard	-10855
▁Riv	-10856
▁Row	-10857
▁Rup	-10858
▁guy	-10859
▁hip	-10860
▁orb	-10861
▁syn	-10862
agger	-10863
ateur	-10864
erved	-10865
etime	-10866
hello	-10867
oviet	-10868
▁Cond	-10869
▁HILL	-10870
▁Hous	-10871
▁Lyon	-10872
▁Mide	-10873
▁Virt	-10874
▁\$24	-10875
▁tort	-10876
amento	-10877
quille	-10878
▁Activ	-10879
▁Creat	-10880
▁Place	-10881
▁Serie	-10882
▁Shauk	-10883
▁drawn	-10884
▁feels	-10885
▁liber	-10886
▁maybe	-10887
▁micro	-10888
▁wrest	-10889
STERDAM	-10890
netsova	-10891
ramento	-10892
ulating	-10893
▁Barric	-10894
▁Charge	-10895
▁Vonage	-10896
▁conven	-10897
▁pledge	-10898
▁punish	-10899
▁stakes	-10900
▁tender	-10901
▁unique	-10902
▁Extends	-10903
▁Mideast	-10904
▁absence	-10905
▁hundred	-10906
▁intends	-10907
▁privacy	-10908
▁rebuild	-10909
▁usually	-10910
InfoWorld	-10911
terrorism	-10912
▁Building	-10913
▁Director	-10914
▁Parmalat	-10915
▁compound	-10916
▁diplomat	-10917
▁persuade	-10918
▁telecoms	-10919
▁uprising	-10920
▁Shaquille	-10921
▁Wimbledon	-10922
▁ambitious	-10923
▁departure	-10924
▁semifinal	-10925
▁PalmSource	-10926
▁celebration	-10927
MO	-10928
gn	-10929
600	-10930
oof	-10931
▁NJ	-10932
uers	-10933
▁27,	-10934
▁Any	-10935
▁Ark	-10936
▁Mob	-10937
▁NBC	-10938
▁mir	-10939
▁pir	-10940
overy	-10941
uffle	-10942
▁born	-10943
▁boys	-10944
ETROIT	-10945
▁2001,	-10946
▁Burma	-10947
▁Honey	-10948
▁Pitch	-10949
▁Sheff	-10950
▁Track	-10951
▁fault	-10952
▁reign	-10953
growing	-10954
▁Editor	-10955
▁Leaves	-10956
▁commod	-10957
▁domain	-10958
▁intent	-10959
▁thwart	-10960
official	-10961
▁DETROIT	-10962
▁However	-10963
▁Instead	-10964
▁Resigns	-10965
▁Shaukat	-10966
▁Spyware	-10967
▁correct	-10968
▁council	-10969
▁crashes	-10970
▁damages	-10971
▁payroll	-10972
▁ratings	-10973
▁Damascus	-10974
▁Interior	-10975
▁Pressure	-10976
▁calendar	-10977
▁canceled	-10978
▁republic	-10979
▁Questions	-10980
▁antivirus	-10981
▁detonated	-10982
▁sensitive	-10983
▁unchanged	-10984
▁Industrial	-10985
▁Kuznetsova	-10986
▁Southampton	-10987
▁established	-10988
▁negotiators	-10989
▁conglomerate	-10990
0,	-10991
At	-10992
FE	-10993
HS	-10994
PP	-10995
Pl	-10996
WS	-10997
enz	-10998
ref	-10999
uri	-11000
▁8-	-11001
▁BO	-11002
Bron	-11003
inai	-11004
isan	-11005
lete	-11006
zens	-11007
▁19,	-11008
▁ETA	-11009
▁Ful	-11010
▁kil	-11011
Keefe	-11012
water	-11013
▁Book	-11014
▁Drew	-11015
▁Eccl	-11016
▁Mand	-11017
▁leap	-11018
▁lucr	-11019
▁type	-11020
header	-11021
profit	-11022
struct	-11023
▁Gibbs	-11024
▁Sells	-11025
▁Sinai	-11026
▁chair	-11027
▁clubs	-11028
▁faith	-11029
▁quake	-11030
▁squee	-11031
reprene	-11032
▁Garden	-11033
▁Sutton	-11034
▁active	-11035
▁slight	-11036
▁Afghans	-11037
▁Eastman	-11038
▁Expands	-11039
▁Hungary	-11040
▁Shuttle	-11041
▁Version	-11042
▁battery	-11043
▁battled	-11044
▁skipper	-11045
▁Millions	-11046
▁exporter	-11047
▁imminent	-11048
▁longtime	-11049
▁reducing	-11050
MacCentral	-11051
controlled	-11052
▁Mavericks	-11053
▁Sheffield	-11054
▁lucrative	-11055
▁electrical	-11056
▁Barrichello	-11057
▁effectively	-11058
▁supermarket	-11059
▁temporarily	-11060
▁representatives	-11061
7;	-11062
;\	-11063
ADS	-11064
APL	-11065
URT	-11066
aga	-11067
eer	-11068
lav	-11069
pts	-11070
▁CR	-11071
ples	-11072
▁Fan	-11073
▁Roc	-11074
▁toy	-11075
azing	-11076
▁2008	-11077
▁Aviv	-11078
▁Come	-11079
▁Main	-11080
▁Rome	-11081
▁Toys	-11082
▁Wars	-11083
▁fest	-11084
ardier	-11085
▁Bayer	-11086
▁Issue	-11087
▁Metro	-11088
▁Santa	-11089
▁Vince	-11090
▁Votes	-11091
▁sleep	-11092
▁stick	-11093
▁troop	-11094
enegger	-11095
▁Bolton	-11096
▁Coming	-11097
▁Harris	-11098
▁Latham	-11099
▁Taking	-11100
▁Though	-11101
▁guards	-11102
▁stable	-11103
▁stream	-11104
▁throws	-11105
▁Airline	-11106
▁consult	-11107
▁mistake	-11108
▁patches	-11109
▁rockets	-11110
▁slammed	-11111
▁Analysts	-11112
▁Campbell	-11113
▁Decision	-11114
▁Missouri	-11115
▁Notebook	-11116
▁Portland	-11117
▁athletic	-11118
▁confront	-11119
▁dialogue	-11120
▁distance	-11121
▁exercise	-11122
▁mistakes	-11123
▁AMSTERDAM	-11124
▁Petroleum	-11125
▁presented	-11126
▁rebounded	-11127
▁simultane	-11128
▁supported	-11129
▁withdrawn	-11130
bersecurity	-11131
▁Bombardier	-11132
▁Chancellor	-11133
▁Ecclestone	-11134
▁Sacramento	-11135
▁integrated	-11136
▁kidnapping	-11137
▁percentage	-11138
▁presidency	-11139
▁association	-11140
▁overwhelming	-11141
▁congressional	-11142
bot	-11143
▁46	-11144
▁Ta	-11145
ffin	-11146
igar	-11147
olit	-11148
▁11-	-11149
▁Hum	-11150
▁Kum	-11151
▁Ral	-11152
▁Vac	-11153
▁Vog	-11154
▁Wel	-11155
▁mad	-11156
▁tow	-11157
aught	-11158
mails	-11159
regon	-11160
▁Craw	-11161
▁Giam	-11162
▁Jazz	-11163
▁ROME	-11164
▁Ruud	-11165
▁Send	-11166
▁Spir	-11167
▁\$53	-11168
▁bear	-11169
▁boot	-11170
▁reop	-11171
essing	-11172
iddles	-11173
liners	-11174
school	-11175
▁Eddie	-11176
▁Jerry	-11177
▁Turns	-11178
▁basic	-11179
▁dealt	-11180
▁guide	-11181
▁towns	-11182
Pacific	-11183
percent	-11184
▁Dozens	-11185
▁Lucent	-11186
▁MONTRE	-11187
▁Rupert	-11188
▁select	-11189
▁thinks	-11190
▁whales	-11191
▁Moqtada	-11192
▁Muqtada	-11193
▁Thomson	-11194
▁Virtual	-11195
▁batting	-11196
▁illness	-11197
▁wearing	-11198
▁Shopping	-11199
▁Withdraw	-11200
▁alleging	-11201
▁micropro	-11202
▁astronaut	-11203
▁detainees	-11204
▁interested	-11205
▁originally	-11206
▁popularity	-11207
▁blockbuster	-11208
82	-11209
Mar	-11210
Oct	-11211
del	-11212
kin	-11213
▁wr	-11214
BURG	-11215
orse	-11216
ouch	-11217
oved	-11218
very	-11219
▁13,	-11220
▁2-2	-11221
▁Kos	-11222
▁RBI	-11223
▁Ult	-11224
▁Yao	-11225
▁pal	-11226
0,000	-11227
mandu	-11228
▁100-	-11229
▁Bett	-11230
▁Gerr	-11231
▁Jump	-11232
▁LPGA	-11233
▁Leon	-11234
▁bold	-11235
▁guid	-11236
anguly	-11237
atures	-11238
imates	-11239
ocaine	-11240
▁2003.	-11241
▁Queen	-11242
▁Vogts	-11243
▁bonds	-11244
▁burst	-11245
▁cargo	-11246
▁clock	-11247
▁stops	-11248
spyware	-11249
▁Better	-11250
▁Gators	-11251
▁Giambi	-11252
▁Panama	-11253
▁Piracy	-11254
▁Policy	-11255
▁Victor	-11256
▁crunch	-11257
▁packed	-11258
▁salary	-11259
▁Browser	-11260
▁Colgate	-11261
▁Ganguly	-11262
▁answers	-11263
▁anticip	-11264
▁embargo	-11265
▁matchup	-11266
▁MONTREAL	-11267
▁Straight	-11268
▁holidays	-11269
▁offshore	-11270
▁physical	-11271
▁selected	-11272
definition	-11273
▁Southwest	-11274
▁libraries	-11275
▁virtually	-11276
▁recovering	-11277
▁Continental	-11278
▁beleaguered	-11279
4)	-11280
-21	-11281
ENE	-11282
IGH	-11283
bal	-11284
bul	-11285
eca	-11286
gio	-11287
ilo	-11288
obb	-11289
sec	-11290
▁72	-11291
▁UF	-11292
base	-11293
gies	-11294
hips	-11295
▁24,	-11296
▁ERP	-11297
▁NFC	-11298
▁Ott	-11299
▁Pip	-11300
▁fol	-11301
Goran	-11302
Phill	-11303
while	-11304
▁Batt	-11305
▁Fame	-11306
▁Lift	-11307
▁Luis	-11308
▁Shot	-11309
▁Stem	-11310
▁Trip	-11311
▁beer	-11312
▁owns	-11313
▁resh	-11314
▁sick	-11315
anking	-11316
ousand	-11317
rosoft	-11318
▁#36;3	-11319
▁Flash	-11320
▁Keeps	-11321
▁Tamil	-11322
▁popul	-11323
▁rolls	-11324
▁royal	-11325
ravaged	-11326
service	-11327
▁Austin	-11328
▁Castro	-11329
▁Integr	-11330
▁Johnny	-11331
▁LeBron	-11332
▁Pleads	-11333
▁Strate	-11334
▁golden	-11335
▁nearby	-11336
▁Aussies	-11337
▁Gerrard	-11338
▁Warming	-11339
▁escaped	-11340
▁journey	-11341
▁operate	-11342
▁shutout	-11343
▁freshman	-11344
▁outbreak	-11345
▁striking	-11346
▁Hampshire	-11347
▁desperate	-11348
▁publishing	-11349
▁Australians	-11350
▁spectacular	-11351
▁Environmental	-11352
5.	-11353
DE	-11354
WE	-11355
two	-11356
▁DO	-11357
USTR	-11358
apes	-11359
dict	-11360
mine	-11361
▁CAR	-11362
▁Cho	-11363
▁Dig	-11364
▁Lex	-11365
▁NOV	-11366
▁asp	-11367
▁dot	-11368
▁mud	-11369
Trust	-11370
angle	-11371
build	-11372
class	-11373
inner	-11374
▁Arms	-11375
▁OCTO	-11376
▁Ship	-11377
▁Weis	-11378
erties	-11379
inging	-11380
portun	-11381
▁Casey	-11382
▁Would	-11383
▁\$400	-11384
▁cheer	-11385
▁forth	-11386
▁grant	-11387
▁sends	-11388
▁Almost	-11389
▁Basque	-11390
▁Delays	-11391
▁Introd	-11392
▁Living	-11393
▁Memory	-11394
▁Oregon	-11395
▁Shrine	-11396
▁Suisse	-11397
▁Unions	-11398
▁cartel	-11399
▁closes	-11400
▁costly	-11401
▁hunger	-11402
▁proced	-11403
▁sacked	-11404
▁served	-11405
▁stages	-11406
Phillips	-11407
▁Reaches	-11408
▁abandon	-11409
▁contain	-11410
▁cycling	-11411
▁opinion	-11412
▁premium	-11413
▁uniform	-11414
▁Possible	-11415
▁Problems	-11416
▁guidance	-11417
▁reliever	-11418
▁tribunal	-11419
▁Argentine	-11420
▁Corporate	-11421
▁Worldwide	-11422
▁Production	-11423
▁Silverstone	-11424
▁challenging	-11425
▁discussions	-11426
▁Intelligence	-11427
▁northeastern	-11428
En	-11429
Re	-11430
AME	-11431
Off	-11432
TAN	-11433
hol	-11434
▁CL	-11435
▁KU	-11436
asty	-11437
cane	-11438
elro	-11439
hist	-11440
outi	-11441
ribe	-11442
▁18,	-11443
▁CAL	-11444
▁bru	-11445
▁mph	-11446
▁raw	-11447
icits	-11448
poena	-11449
▁1999	-11450
▁Budd	-11451
▁Coke	-11452
▁Fear	-11453
▁IAEA	-11454
▁Love	-11455
▁Nist	-11456
▁plus	-11457
▁twin	-11458
killer	-11459
▁Astra	-11460
▁Brady	-11461
▁Kraft	-11462
▁Plant	-11463
▁Rolls	-11464
▁Voice	-11465
▁Wired	-11466
▁aides	-11467
▁beach	-11468
▁camps	-11469
▁grows	-11470
▁rugby	-11471
▁subur	-11472
▁suing	-11473
▁surve	-11474
idnight	-11475
▁Aussie	-11476
▁Awards	-11477
▁Disput	-11478
▁Relief	-11479
▁Rogers	-11480
▁Steven	-11481
▁Voting	-11482
▁Wilson	-11483
▁abrupt	-11484
▁borrow	-11485
▁killer	-11486
▁theory	-11487
▁topped	-11488
▁Appeals	-11489
▁Beltran	-11490
▁Blazers	-11491
▁Collins	-11492
▁Middles	-11493
▁OCTOBER	-11494
▁Santana	-11495
▁patient	-11496
▁strokes	-11497
▁tougher	-11498
▁unknown	-11499
▁Nistelro	-11500
▁Products	-11501
▁detailed	-11502
▁handling	-11503
▁identify	-11504
▁survival	-11505
▁Agreement	-11506
▁advocates	-11507
▁featuring	-11508
▁BLOOMFIELD	-11509
▁Portsmouth	-11510
▁colleagues	-11511
▁competitor	-11512
▁complaints	-11513
▁conviction	-11514
▁disappointed	-11515
Un	-11516
aco	-11517
▁53	-11518
▁71	-11519
▁Ka	-11520
alom	-11521
amps	-11522
boro	-11523
esty	-11524
irms	-11525
itsu	-11526
that	-11527
▁Aim	-11528
▁CFO	-11529
▁Him	-11530
▁UAL	-11531
usive	-11532
▁BASE	-11533
▁Clij	-11534
▁Cold	-11535
▁Draw	-11536
▁Gren	-11537
▁Lose	-11538
▁Silv	-11539
▁Stay	-11540
▁burn	-11541
▁haul	-11542
▁tree	-11543
closed	-11544
umbent	-11545
wanted	-11546
▁#36;5	-11547
▁Bulls	-11548
▁Tyler	-11549
▁beaut	-11550
▁drink	-11551
▁error	-11552
▁proof	-11553
▁spots	-11554
▁subst	-11555
ologist	-11556
▁Clarke	-11557
▁Crisis	-11558
▁Patent	-11559
▁Planet	-11560
▁Susilo	-11561
▁drinks	-11562
▁reiter	-11563
▁strain	-11564
▁FALLUJA	-11565
▁Gunners	-11566
▁Tribune	-11567
▁Wilkins	-11568
▁cloning	-11569
▁funeral	-11570
▁opposed	-11571
▁savings	-11572
▁Lockheed	-11573
▁Militant	-11574
▁chemical	-11575
▁flooding	-11576
▁knockout	-11577
▁moderate	-11578
▁Armstrong	-11579
▁Clijsters	-11580
▁Kidnapped	-11581
▁chipmaker	-11582
▁negotiate	-11583
▁ownership	-11584
▁platforms	-11585
▁policemen	-11586
▁Nistelrooy	-11587
▁attendants	-11588
▁cornerback	-11589
▁greenhouse	-11590
▁importance	-11591
▁regulations	-11592
▁acquisitions	-11593
▁independence	-11594
▁Schwarzenegger	-11595
Eu	-11596
NT	-11597
gl	-11598
ja	-11599
ACH	-11600
NET	-11601
mal	-11602
▁DE	-11603
▁FT	-11604
▁IC	-11605
airy	-11606
beki	-11607
holm	-11608
itez	-11609
ovan	-11610
oyed	-11611
royo	-11612
▁Dub	-11613
▁RSS	-11614
▁Sue	-11615
▁Ted	-11616
▁deg	-11617
ework	-11618
iamen	-11619
▁Asks	-11620
▁Banc	-11621
▁Bash	-11622
▁Grid	-11623
▁Insp	-11624
▁Kyle	-11625
▁cert	-11626
▁scen	-11627
▁youn	-11628
Intern	-11629
ailing	-11630
brough	-11631
lantic	-11632
▁Alcoa	-11633
▁Delay	-11634
▁Grace	-11635
▁Keith	-11636
▁Medal	-11637
▁Megaw	-11638
▁Nears	-11639
▁Paper	-11640
▁Sains	-11641
▁Slips	-11642
▁Spani	-11643
▁glory	-11644
▁ships	-11645
errilla	-11646
▁Boxing	-11647
▁Church	-11648
▁Hoping	-11649
▁Injury	-11650
▁Museum	-11651
▁abuses	-11652
▁awards	-11653
▁blocks	-11654
▁dubbed	-11655
▁halted	-11656
▁locker	-11657
▁smooth	-11658
▁unfair	-11659
▁valued	-11660
▁weapon	-11661
▁Benitez	-11662
▁Heisman	-11663
▁Matthew	-11664
▁accompl	-11665
▁dealing	-11666
▁moments	-11667
▁tumbled	-11668
▁undergo	-11669
▁Abdullah	-11670
▁declines	-11671
▁prisoner	-11672
▁reaction	-11673
▁stepping	-11674
▁wreckage	-11675
▁Honeywell	-11676
▁Sainsbury	-11677
▁Sanctions	-11678
▁tradition	-11679
▁DreamWorks	-11680
▁Scientific	-11681
▁compromise	-11682
▁accusations	-11683
SB	-11684
ARA	-11685
INS	-11686
MAN	-11687
ela	-11688
hot	-11689
uly	-11690
▁Od	-11691
▁ge	-11692
UAIR	-11693
gedy	-11694
iang	-11695
jans	-11696
umin	-11697
▁2.0	-11698
▁28,	-11699
▁4-1	-11700
▁Aer	-11701
▁Cab	-11702
▁Gap	-11703
▁Wid	-11704
▁ace	-11705
avior	-11706
essor	-11707
illes	-11708
named	-11709
rimin	-11710
ulted	-11711
ureau	-11712
▁AIDS	-11713
▁Holy	-11714
▁Save	-11715
▁WNBA	-11716
▁\$20	-11717
▁tore	-11718
▁Celeb	-11719
▁Other	-11720
▁Quick	-11721
▁mayor	-11722
▁scrap	-11723
lington	-11724
▁Groups	-11725
▁Kenyan	-11726
▁Negoti	-11727
▁Rivals	-11728
▁asylum	-11729
▁bombed	-11730
▁branch	-11731
▁capped	-11732
▁labels	-11733
▁margin	-11734
▁Average	-11735
▁Cendant	-11736
▁Earthqu	-11737
▁Lawsuit	-11738
▁Maurice	-11739
▁Running	-11740
▁briefly	-11741
▁circuit	-11742
▁counted	-11743
▁deliber	-11744
▁delight	-11745
▁genetic	-11746
▁treated	-11747
▁visited	-11748
▁Arrested	-11749
▁Crawford	-11750
▁Independ	-11751
▁Megawati	-11752
▁aviation	-11753
▁infected	-11754
▁monitors	-11755
▁specific	-11756
▁supports	-11757
government	-11758
▁Threatens	-11759
▁magnitude	-11760
▁Kazakhstan	-11761
▁experiment	-11762
▁registered	-11763
▁businessman	-11764
▁comfortable	-11765
▁disappointment	-11766
▁Representatives	-11767
/&	-11768
1"	-11769
AKE	-11770
Man	-11771
car	-11772
▁92	-11773
▁Fe	-11774
agle	-11775
inid	-11776
user	-11777
▁24-	-11778
▁4-2	-11779
▁Arn	-11780
▁Hok	-11781
▁ben	-11782
▁unp	-11783
Shell	-11784
bound	-11785
initi	-11786
organ	-11787
▁Finn	-11788
▁Husk	-11789
▁Indy	-11790
▁Peps	-11791
▁Robb	-11792
▁fake	-11793
▁hook	-11794
ienced	-11795
puting	-11796
▁Heavy	-11797
▁Mbeki	-11798
▁Veter	-11799
▁evacu	-11800
▁hikes	-11801
▁kicks	-11802
▁quits	-11803
▁rains	-11804
▁solve	-11805
▁stiff	-11806
▁sworn	-11807
uration	-11808
▁Around	-11809
▁Extend	-11810
▁Hotels	-11811
▁Reform	-11812
▁Rivera	-11813
▁Rivers	-11814
▁Valent	-11815
▁bounce	-11816
▁praise	-11817
▁triple	-11818
▁Chilean	-11819
▁Getting	-11820
▁Thunder	-11821
▁Trojans	-11822
▁Weather	-11823
▁accuses	-11824
▁bankers	-11825
▁classic	-11826
▁drawing	-11827
▁primary	-11828
▁shortly	-11829
▁survive	-11830
▁turmoil	-11831
president	-11832
▁Concerns	-11833
▁blockade	-11834
▁delivers	-11835
▁ceasefire	-11836
▁component	-11837
▁defeating	-11838
▁transform	-11839
▁components	-11840
▁protecting	-11841
▁Competition	-11842
▁differences	-11843
99	-11844
GP	-11845
KA	-11846
aya	-11847
but	-11848
lit	-11849
▁Ak	-11850
▁Md	-11851
▁Ni	-11852
▁SD	-11853
▁du	-11854
="1"	-11855
emic	-11856
iner	-11857
oken	-11858
▁1.8	-11859
asted	-11860
count	-11861
inted	-11862
tersh	-11863
▁Buck	-11864
▁Jint	-11865
▁Nuke	-11866
▁PORT	-11867
▁Stel	-11868
▁cosm	-11869
▁gang	-11870
Mobile	-11871
▁2004)	-11872
▁Below	-11873
▁CAIRO	-11874
▁Civil	-11875
▁Heads	-11876
▁Kumar	-11877
▁Pepsi	-11878
▁Surge	-11879
▁honor	-11880
▁psych	-11881
caneers	-11882
enteris	-11883
powered	-11884
respond	-11885
romedia	-11886
▁Course	-11887
▁Design	-11888
▁Fulham	-11889
▁church	-11890
▁errors	-11891
▁patrol	-11892
▁priced	-11893
▁Decline	-11894
▁Ellison	-11895
▁Terrell	-11896
▁blasted	-11897
▁Russians	-11898
▁adapters	-11899
▁affected	-11900
▁birthday	-11901
▁desktops	-11902
▁strongly	-11903
▁aerospace	-11904
▁travelers	-11905
▁Buccaneers	-11906
▁devastated	-11907
▁landslides	-11908
▁statements	-11909
▁Opportunity	-11910
▁combination	-11911
▁questionable	-11912
▁Middlesbrough	-11913
▁identification	-11914
GC	-11915
KH	-11916
CLA	-11917
Max	-11918
asa	-11919
bow	-11920
pot	-11921
▁94	-11922
▁CO	-11923
▁EN	-11924
▁SO	-11925
▁Ts	-11926
This	-11927
eers	-11928
iser	-11929
ouds	-11930
oves	-11931
▁Ans	-11932
▁Led	-11933
▁sac	-11934
▁tip	-11935
fight	-11936
irmed	-11937
share	-11938
▁Beta	-11939
▁Conv	-11940
▁Luke	-11941
▁Publ	-11942
▁Pull	-11943
▁Rout	-11944
▁enth	-11945
▁odds	-11946
▁whom	-11947
ometer	-11948
▁Blunk	-11949
▁Fires	-11950
▁Going	-11951
▁Kelly	-11952
▁Manny	-11953
▁Quatt	-11954
▁Ralph	-11955
▁Sites	-11956
▁Suite	-11957
▁glass	-11958
▁incor	-11959
▁innoc	-11960
▁Breaks	-11961
▁Morris	-11962
▁Starts	-11963
▁coffee	-11964
▁fights	-11965
▁forest	-11966
▁metres	-11967
▁pieces	-11968
▁shared	-11969
▁specif	-11970
▁tradem	-11971
distance	-11972
▁Bambang	-11973
▁Bobcats	-11974
▁Meeting	-11975
▁example	-11976
▁follows	-11977
▁shipped	-11978
▁Centrino	-11979
▁Consider	-11980
▁Kenteris	-11981
▁Resident	-11982
▁Richards	-11983
▁occurred	-11984
▁tracking	-11985
▁underway	-11986
▁HealthDay	-11987
▁Messenger	-11988
▁economies	-11989
▁execution	-11990
▁installed	-11991
▁reduction	-11992
▁stability	-11993
▁Accounting	-11994
▁completely	-11995
▁helicopters	-11996
▁individuals	-11997
▁programming	-11998
IY	-11999
PK	-12000
da	-12001
GHz	-12002
TOC	-12003
▁SI	-12004
ados	-12005
enny	-12006
fare	-12007
prus	-12008
▁Ros	-12009
▁bed	-12010
▁ble	-12011
▁cra	-12012
▁eld	-12013
▁fee	-12014
after	-12015
alese	-12016
enged	-12017
itted	-12018
ropri	-12019
vidia	-12020
▁2007	-12021
▁Ayad	-12022
▁Bund	-12023
▁Dean	-12024
▁Kell	-12025
▁Kirk	-12026
▁Kost	-12027
▁Labs	-12028
▁Nord	-12029
▁Teen	-12030
▁Wool	-12031
▁\$13	-12032
▁bund	-12033
▁pond	-12034
▁prev	-12035
▁riot	-12036
▁sank	-12037
▁tons	-12038
▁trim	-12039
Forbes	-12040
Friday	-12041
edding	-12042
flight	-12043
handed	-12044
rating	-12045
▁Elena	-12046
▁Marat	-12047
▁Moore	-12048
▁Overs	-12049
▁Sweep	-12050
▁\$300	-12051
▁categ	-12052
▁cripp	-12053
▁plead	-12054
▁speak	-12055
essions	-12056
▁Cyprus	-12057
▁Silvio	-12058
▁anonym	-12059
▁cooper	-12060
▁homers	-12061
▁panels	-12062
▁saving	-12063
▁staged	-12064
▁talent	-12065
▁teamed	-12066
▁urgent	-12067
▁Conserv	-12068
▁Huskies	-12069
▁Mahmoud	-12070
▁Soldier	-12071
▁Strikes	-12072
▁Studios	-12073
▁culture	-12074
▁pending	-12075
▁slugger	-12076
essential	-12077
▁Celebrex	-12078
▁Question	-12079
▁Reported	-12080
▁Warriors	-12081
▁carmaker	-12082
▁displays	-12083
▁gambling	-12084
▁swimming	-12085
▁wildlife	-12086
▁Kathmandu	-12087
▁attempted	-12088
▁cellphone	-12089
▁character	-12090
▁shortstop	-12091
▁sprinters	-12092
EU	-12093
ba	-12094
AMD	-12095
IRE	-12096
avs	-12097
iki	-12098
ogg	-12099
▁57	-12100
▁8:	-12101
▁SM	-12102
hire	-12103
laim	-12104
▁13-	-12105
▁21-	-12106
▁650	-12107
▁Bin	-12108
▁CDs	-12109
▁McK	-12110
▁OAK	-12111
▁Pot	-12112
▁gar	-12113
ebuck	-12114
eneca	-12115
frame	-12116
opoly	-12117
parts	-12118
urich	-12119
▁CHAR	-12120
▁EADS	-12121
▁Emir	-12122
▁Expo	-12123
▁Flex	-12124
▁Moya	-12125
▁Nike	-12126
▁Repl	-12127
▁Rule	-12128
▁Word	-12129
▁\$46	-12130
▁dawn	-12131
▁hide	-12132
achers	-12133
hening	-12134
luster	-12135
rehens	-12136
▁Adams	-12137
▁Gmail	-12138
▁HILLS	-12139
▁Lilly	-12140
▁Mills	-12141
▁Schro	-12142
▁Teams	-12143
▁execs	-12144
▁nears	-12145
atories	-12146
cutting	-12147
▁Arroyo	-12148
▁Dement	-12149
▁Jintao	-12150
▁Nvidia	-12151
▁adults	-12152
▁ancest	-12153
▁cement	-12154
▁hellip	-12155
▁pleads	-12156
▁safely	-12157
▁termin	-12158
olicited	-12159
▁Auction	-12160
▁Members	-12161
▁Ratings	-12162
▁Roebuck	-12163
▁conclus	-12164
▁remarks	-12165
Microsoft	-12166
▁Blunkett	-12167
▁Champion	-12168
▁Emirates	-12169
▁Increase	-12170
▁activist	-12171
▁Lawmakers	-12172
▁Quattrone	-12173
▁declining	-12174
▁sidelined	-12175
▁structure	-12176
▁videotape	-12177
▁collection	-12178
▁profitable	-12179
▁distributed	-12180
▁distributor	-12181
▁screensaver	-12182
▁Organisation	-12183
▁subscription	-12184
5-	-12185
oa	-12186
dis	-12187
ika	-12188
yer	-12189
Aust	-12190
eren	-12191
erez	-12192
odox	-12193
pnet	-12194
poin	-12195
rote	-12196
stad	-12197
tson	-12198
▁19-	-12199
▁Jar	-12200
▁Kat	-12201
▁Lay	-12202
▁Lik	-12203
▁Suu	-12204
▁eth	-12205
▁mun	-12206
▁rib	-12207
aters	-12208
ensus	-12209
istle	-12210
uties	-12211
▁2010	-12212
▁6-1,	-12213
▁Brom	-12214
▁Chem	-12215
▁Lord	-12216
▁Path	-12217
▁Prim	-12218
▁Text	-12219
▁Ties	-12220
▁imag	-12221
▁oust	-12222
▁trio	-12223
▁wors	-12224
Europe	-12225
urable	-12226
▁Barcl	-12227
▁Dhaka	-12228
▁Maker	-12229
▁Point	-12230
▁Rover	-12231
▁Those	-12232
▁Tight	-12233
▁aging	-12234
▁hedge	-12235
▁stays	-12236
▁Secret	-12237
▁Summit	-12238
▁Twenty	-12239
▁excess	-12240
▁hybrid	-12241
▁junior	-12242
▁regain	-12243
▁rovers	-12244
ellation	-12245
ximately	-12246
▁Ancient	-12247
▁Fujitsu	-12248
▁Hackers	-12249
▁Jeffrey	-12250
▁brokers	-12251
▁cocaine	-12252
▁convers	-12253
▁drought	-12254
▁richest	-12255
▁roughly	-12256
▁variety	-12257
▁wrapped	-12258
▁RAMALLAH	-12259
▁Romanian	-12260
▁daughter	-12261
▁deterior	-12262
▁midnight	-12263
▁opportun	-12264
▁pensions	-12265
▁plotting	-12266
▁violated	-12267
▁Continues	-12268
▁Offensive	-12269
▁Yesterday	-12270
▁campaigns	-12271
▁expecting	-12272
▁purchased	-12273
▁containing	-12274
▁controlled	-12275
▁democratic	-12276
▁entreprene	-12277
▁incentives	-12278
▁photograph	-12279
▁interesting	-12280
▁investments	-12281
▁demonstrated	-12282
AI	-12283
DI	-12284
ken	-12285
las	-12286
low	-12287
sol	-12288
▁61	-12289
▁ED	-12290
▁RU	-12291
▁Ug	-12292
-200	-12293
ayan	-12294
iton	-12295
mann	-12296
olds	-12297
osis	-12298
pled	-12299
sted	-12300
▁160	-12301
▁26,	-12302
▁5-2	-12303
▁Hon	-12304
▁IOC	-12305
▁Kyi	-12306
▁Rio	-12307
▁anx	-12308
Month	-12309
oslav	-12310
robat	-12311
▁Crim	-12312
▁Hart	-12313
▁Stun	-12314
▁hamp	-12315
▁iron	-12316
▁tear	-12317
andals	-12318
▁2000,	-12319
▁Cough	-12320
▁FRANK	-12321
▁Maybe	-12322
▁Stars	-12323
▁These	-12324
▁Treat	-12325
▁bears	-12326
▁memor	-12327
▁smoke	-12328
Russian	-12329
iveness	-12330
▁Casino	-12331
▁Manuel	-12332
▁Vienna	-12333
▁Writer	-12334
▁causes	-12335
▁listen	-12336
▁mainly	-12337
▁runner	-12338
▁unders	-12339
▁Jimenez	-12340
▁Senator	-12341
▁Telekom	-12342
▁Tobacco	-12343
▁bullpen	-12344
▁fighter	-12345
▁pitches	-12346
▁powered	-12347
computing	-12348
itational	-12349
▁Barbados	-12350
▁Brothers	-12351
▁medicine	-12352
▁mounting	-12353
▁protocol	-12354
▁Estimates	-12355
▁creditors	-12356
▁delegates	-12357
▁integrate	-12358
▁petroleum	-12359
▁impossible	-12360
▁mastermind	-12361
▁multimedia	-12362
▁restaurant	-12363
▁specialist	-12364
▁downloading	-12365
▁legislative	-12366
▁doubleheader	-12367
IF	-12368
▁x	-12369
/04	-12370
;\&	-12371
DAL	-12372
abi	-12373
gie	-12374
inf	-12375
oli	-12376
tra	-12377
▁LE	-12378
▁UM	-12379
anta	-12380
case	-12381
fund	-12382
sign	-12383
turn	-12384
▁23,	-12385
▁29,	-12386
▁Dip	-12387
▁Inn	-12388
▁alb	-12389
▁gay	-12390
▁lie	-12391
▁nov	-12392
▁(\$1	-12393
▁Mean	-12394
▁Mond	-12395
▁Song	-12396
▁duty	-12397
▁guys	-12398
▁warl	-12399
eoples	-12400
iented	-12401
member	-12402
ocking	-12403
▁Armed	-12404
▁Rober	-12405
▁Trust	-12406
▁chose	-12407
▁dinos	-12408
▁fatal	-12409
▁forms	-12410
▁radar	-12411
▁skept	-12412
▁strip	-12413
aigning	-12414
▁Advert	-12415
▁Gatlin	-12416
▁Miguel	-12417
▁adjust	-12418
▁animal	-12419
▁campus	-12420
▁deeper	-12421
▁factor	-12422
▁frozen	-12423
▁muscle	-12424
▁racist	-12425
▁skills	-12426
▁stockp	-12427
▁tribal	-12428
▁waited	-12429
ospitals	-12430
▁Doctors	-12431
▁Hopkins	-12432
▁Redmond	-12433
▁Witness	-12434
▁creates	-12435
▁engaged	-12436
▁readies	-12437
▁secured	-12438
▁Deadline	-12439
▁Reliance	-12440
▁disputes	-12441
▁printers	-12442
▁refusing	-12443
▁switches	-12444
▁valuable	-12445
▁welcomes	-12446
▁Terrorism	-12447
▁beheading	-12448
▁benchmark	-12449
▁connected	-12450
▁explosive	-12451
▁guerrilla	-12452
▁incumbent	-12453
▁researcher	-12454
▁quarterbacks	-12455
.)	-12456
AY	-12457
VE	-12458
iw	-12459
uy	-12460
ACK	-12461
mor	-12462
sup	-12463
▁59	-12464
▁5:	-12465
▁RO	-12466
▁ho	-12467
nell	-12468
▁Bit	-12469
▁Der	-12470
▁Fee	-12471
▁Lah	-12472
▁PIT	-12473
▁UBS	-12474
▁nav	-12475
▁pin	-12476
abies	-12477
agged	-12478
allah	-12479
comes	-12480
eploy	-12481
liest	-12482
▁Area	-12483
▁Colo	-12484
▁Cool	-12485
▁Much	-12486
▁Pred	-12487
▁Todd	-12488
▁Wash	-12489
▁\$54	-12490
▁chat	-12491
▁impr	-12492
▁isol	-12493
▁mice	-12494
▁murd	-12495
▁outl	-12496
▁trem	-12497
asting	-12498
demand	-12499
terdam	-12500
ternal	-12501
▁2002,	-12502
▁Clash	-12503
▁Dubai	-12504
▁Likud	-12505
▁Loses	-12506
▁Moroc	-12507
▁Sachs	-12508
▁Woman	-12509
▁\$250	-12510
▁benef	-12511
▁uncon	-12512
▁unity	-12513
leyball	-12514
▁Bosnia	-12515
▁Burund	-12516
▁Denies	-12517
▁Expand	-12518
▁Marcus	-12519
▁Toward	-12520
▁chiefs	-12521
▁proper	-12522
▁stabil	-12523
▁Discuss	-12524
▁Raymond	-12525
▁Settles	-12526
▁adviser	-12527
▁banning	-12528
▁broader	-12529
▁enables	-12530
▁partial	-12531
▁spotted	-12532
▁textile	-12533
▁tragedy	-12534
▁volcano	-12535
▁Analysis	-12536
▁Mourning	-12537
▁Salvador	-12538
▁attacker	-12539
▁secretly	-12540
▁Customers	-12541
▁arguments	-12542
▁processes	-12543
▁purported	-12544
▁resolving	-12545
▁transport	-12546
▁Controvers	-12547
▁Macromedia	-12548
▁remarkable	-12549
▁successive	-12550
▁Prosecutors	-12551
▁experiments	-12552
▁initiatives	-12553
▁Invitational	-12554
▁Professional	-12555
▁architecture	-12556
▁ConocoPhillips	-12557
▁simultaneously	-12558
86	-12559
:-	-12560
-20	-12561
-24	-12562
.11	-12563
Pro	-12564
ema	-12565
iqu	-12566
iri	-12567
rek	-12568
▁85	-12569
▁Ax	-12570
▁Ay	-12571
▁JB	-12572
▁SC	-12573
onia	-12574
rous	-12575
wise	-12576
▁21,	-12577
▁22,	-12578
▁25,	-12579
▁AFC	-12580
▁Ace	-12581
▁BMW	-12582
▁COR	-12583
▁Fix	-12584
▁Hyn	-12585
▁Lic	-12586
▁Lor	-12587
▁MIL	-12588
▁PRO	-12589
▁Rud	-12590
▁pig	-12591
▁rom	-12592
▁sch	-12593
again	-12594
aping	-12595
encer	-12596
etown	-12597
immer	-12598
xygen	-12599
▁Away	-12600
▁Copy	-12601
▁Feds	-12602
▁STOC	-12603
▁Term	-12604
▁UCLA	-12605
▁Wrig	-12606
▁\$41	-12607
▁gest	-12608
▁jack	-12609
▁pill	-12610
Google	-12611
Sonics	-12612
ilever	-12613
▁1,500	-12614
▁Mylan	-12615
▁brink	-12616
▁gross	-12617
▁merch	-12618
▁saved	-12619
▁scrut	-12620
▁shaky	-12621
▁truce	-12622
▁twist	-12623
▁weren	-12624
Austral	-12625
ilitary	-12626
▁Boosts	-12627
▁Brands	-12628
▁Budget	-12629
▁Bureau	-12630
▁Deputy	-12631
▁Paraly	-12632
▁Pierce	-12633
▁Sachin	-12634
▁Spirit	-12635
▁Tyrone	-12636
▁debuts	-12637
▁grocer	-12638
▁legacy	-12639
▁motion	-12640
▁Dunhill	-12641
▁Playing	-12642
▁Roundup	-12643
▁Wrigley	-12644
▁dismant	-12645
▁enjoyed	-12646
▁tourism	-12647
▁Billiton	-12648
▁Caminiti	-12649
▁Kentucky	-12650
▁Nepalese	-12651
▁Unilever	-12652
▁academic	-12653
▁behavior	-12654
▁deficits	-12655
▁recruits	-12656
▁Schroeder	-12657
▁Solutions	-12658
▁attackers	-12659
▁emotional	-12660
▁encourage	-12661
▁spreading	-12662
▁testimony	-12663
▁encouraged	-12664
▁politician	-12665
▁SuperSonics	-12666
▁outstanding	-12667
▁prosecution	-12668
AMP	-12669
HAR	-12670
PTI	-12671
\\"	-12672
dec	-12673
ean	-12674
eri	-12675
ila	-12676
▁BY	-12677
▁HE	-12678
FURT	-12679
HEIM	-12680
bian	-12681
host	-12682
rome	-12683
▁0.2	-12684
▁4-3	-12685
▁ATI	-12686
▁Ren	-12687
▁Ric	-12688
▁dug	-12689
▁hub	-12690
▁joy	-12691
▁tox	-12692
▁vig	-12693
oiled	-12694
olfer	-12695
osite	-12696
▁Duke	-12697
▁Fail	-12698
▁IPod	-12699
▁Lloy	-12700
▁RIAA	-12701
▁Rash	-12702
▁\$29	-12703
▁\$40	-12704
▁aver	-12705
▁fier	-12706
▁hung	-12707
▁priz	-12708
▁urge	-12709
▁wish	-12710
Center	-12711
itting	-12712
riving	-12713
▁Ahmed	-12714
▁Maced	-12715
▁cigar	-12716
▁doors	-12717
▁false	-12718
▁jumps	-12719
▁likes	-12720
▁metal	-12721
▁stead	-12722
▁Mining	-12723
▁Ottawa	-12724
▁Troubl	-12725
▁carbon	-12726
▁clears	-12727
▁dreams	-12728
▁oldest	-12729
▁speeds	-12730
commerce	-12731
▁Acrobat	-12732
▁TechWeb	-12733
▁affairs	-12734
▁gadgets	-12735
▁halfway	-12736
▁pressed	-12737
▁qualify	-12738
▁samples	-12739
▁walking	-12740
tershocks	-12741
▁Shoppers	-12742
▁Westwood	-12743
▁asbestos	-12744
▁peaceful	-12745
▁sporting	-12746
▁tropical	-12747
▁Animation	-12748
▁ballistic	-12749
▁nightmare	-12750
▁offseason	-12751
▁selection	-12752
▁trademark	-12753
▁occupation	-12754
▁reiterated	-12755
▁circulation	-12756
▁influential	-12757
▁proceedings	-12758
▁undisclosed	-12759
▁improvements	-12760
▁approximately	-12761
Pak	-12762
▁82	-12763
▁GB	-12764
▁ME	-12765
Sept	-12766
airo	-12767
euro	-12768
ieva	-12769
kina	-12770
lift	-12771
obod	-12772
rary	-12773
▁196	-12774
▁ASE	-12775
▁Bey	-12776
▁Bud	-12777
▁Joy	-12778
▁Mug	-12779
▁PRE	-12780
▁Pra	-12781
▁rub	-12782
▁tum	-12783
▁ven	-12784
enges	-12785
waves	-12786
▁Coul	-12787
▁Govt	-12788
▁Nazi	-12789
▁Plot	-12790
▁\$47	-12791
▁obst	-12792
▁sole	-12793
People	-12794
appers	-12795
luding	-12796
racted	-12797
▁Cairo	-12798
▁Fifth	-12799
▁Urban	-12800
▁defin	-12801
▁diver	-12802
▁fixes	-12803
▁ideas	-12804
▁minds	-12805
▁rocks	-12806
▁shell	-12807
▁skies	-12808
▁swift	-12809
▁tears	-12810
company	-12811
ellites	-12812
▁Expect	-12813
▁Hardie	-12814
▁Losses	-12815
▁Nelson	-12816
▁Output	-12817
▁Slovak	-12818
▁Streak	-12819
▁Weighs	-12820
▁awaits	-12821
▁lights	-12822
▁portal	-12823
▁shield	-12824
Internet	-12825
▁Concern	-12826
▁Donovan	-12827
▁Ramadan	-12828
▁Sooners	-12829
▁concert	-12830
▁embrace	-12831
▁optical	-12832
▁picking	-12833
▁pirated	-12834
▁referee	-12835
▁reviews	-12836
▁studies	-12837
▁stunned	-12838
▁teenage	-12839
▁tourist	-12840
▁Advances	-12841
▁deployed	-12842
▁findings	-12843
▁fortunes	-12844
▁overturn	-12845
▁resulted	-12846
▁rotation	-12847
▁shrugged	-12848
▁stemming	-12849
▁FRANKFURT	-12850
▁Lithuania	-12851
▁decisions	-12852
▁efficient	-12853
▁landslide	-12854
▁upgrading	-12855
▁Dementieva	-12856
▁Enterprises	-12857
▁extradition	-12858
▁institution	-12859
▁introducing	-12860
▁unsolicited	-12861
▁conservation	-12862
RI	-12863
MMC	-12864
ura	-12865
▁EM	-12866
▁LG	-12867
Spam	-12868
cell	-12869
fast	-12870
pers	-12871
rera	-12872
▁120	-12873
▁14-	-12874
▁25-	-12875
▁FTC	-12876
▁Fle	-12877
▁Nad	-12878
▁Orb	-12879
▁SMB	-12880
▁Vin	-12881
▁lav	-12882
ching	-12883
ested	-12884
gages	-12885
icked	-12886
ieves	-12887
ograp	-12888
ugged	-12889
virus	-12890
▁Easy	-12891
▁Jury	-12892
▁Lara	-12893
▁Lear	-12894
▁Svet	-12895
▁Woes	-12896
▁\$35	-12897
▁grim	-12898
▁roof	-12899
actice	-12900
ichiro	-12901
icipal	-12902
manned	-12903
nasdaq	-12904
obodan	-12905
▁Hynix	-12906
▁Joins	-12907
▁Notes	-12908
▁Oscar	-12909
▁Quake	-12910
▁Raise	-12911
▁Villa	-12912
▁blind	-12913
▁buyer	-12914
▁dairy	-12915
▁eleph	-12916
▁laser	-12917
▁stuck	-12918
aration	-12919
atching	-12920
efeated	-12921
session	-12922
▁Motley	-12923
▁Others	-12924
▁Sasser	-12925
▁Soviet	-12926
▁affili	-12927
▁bullet	-12928
▁corpor	-12929
▁empire	-12930
▁forget	-12931
▁hosted	-12932
▁underw	-12933
▁Bosnian	-12934
▁Clashes	-12935
▁booming	-12936
▁generic	-12937
▁gunfire	-12938
▁islands	-12939
▁margins	-12940
▁recalls	-12941
▁spurred	-12942
▁Coughlin	-12943
▁downtown	-12944
▁licenses	-12945
▁Defending	-12946
▁Explosion	-12947
▁Hungarian	-12948
▁Stockholm	-12949
▁detention	-12950
▁disrupted	-12951
▁headlines	-12952
▁investing	-12953
anticipated	-12954
▁Confidence	-12955
▁Executives	-12956
▁challenged	-12957
▁delivering	-12958
▁difference	-12959
▁organizers	-12960
▁turnaround	-12961
▁Thunderbird	-12962
▁pornography	-12963
PE	-12964
PI	-12965
Sc	-12966
sm	-12967
tz	-12968
eto	-12969
pet	-12970
▁EL	-12971
▁FL	-12972
▁eg	-12973
azir	-12974
from	-12975
lana	-12976
lash	-12977
math	-12978
pace	-12979
pect	-12980
▁2.5	-12981
▁ISP	-12982
▁MEL	-12983
▁MIN	-12984
▁MPs	-12985
▁Taj	-12986
▁eat	-12987
▁gal	-12988
▁sne	-12989
ittal	-12990
plant	-12991
▁Cink	-12992
▁Crow	-12993
▁Jenn	-12994
▁MSFT	-12995
▁Mall	-12996
▁Worm	-12997
▁eval	-12998
▁fold	-12999
▁frag	-13000
▁none	-13001
▁turf	-13002
aciers	-13003
alkeep	-13004
annels	-13005
athlon	-13006
ocracy	-13007
ortion	-13008
▁Brent	-13009
▁Hawai	-13010
▁Lands	-13011
▁Marks	-13012
▁Newsp	-13013
▁\$1.5	-13014
▁\$160	-13015
▁audit	-13016
▁empty	-13017
▁scams	-13018
▁slams	-13019
▁Cleric	-13020
▁Disapp	-13021
▁Lukoil	-13022
▁Palmer	-13023
▁enthus	-13024
▁except	-13025
▁infilt	-13026
▁transf	-13027
▁upheld	-13028
msterdam	-13029
▁100,000	-13030
▁Grenada	-13031
▁Mondavi	-13032
▁Morning	-13033
▁Surgery	-13034
▁Weapons	-13035
▁concent	-13036
▁expense	-13037
▁plastic	-13038
▁pointed	-13039
▁praised	-13040
▁readers	-13041
▁restart	-13042
▁tactics	-13043
▁verdict	-13044
▁Pictures	-13045
▁Takeover	-13046
▁airports	-13047
▁decisive	-13048
▁dictator	-13049
▁resolved	-13050
▁Countries	-13051
▁Standards	-13052
▁alongside	-13053
▁incidents	-13054
▁purchases	-13055
▁shattered	-13056
▁uncovered	-13057
▁villagers	-13058
▁wholesale	-13059
▁mainstream	-13060
▁represents	-13061
▁unanimously	-13062
▁indefinitely	-13063
▁institutions	-13064
▁peacekeeping	-13065
▁strengthening	-13066
BL	-13067
TW	-13068
ISH	-13069
eli	-13070
inz	-13071
oni	-13072
▁58	-13073
▁81	-13074
▁ug	-13075
AGUE	-13076
THER	-13077
fold	-13078
opes	-13079
oven	-13080
▁31,	-13081
▁5-4	-13082
▁Fre	-13083
▁Han	-13084
▁Kal	-13085
▁Rou	-13086
▁SMS	-13087
BURGH	-13088
court	-13089
erous	-13090
iture	-13091
ledge	-13092
thard	-13093
▁Base	-13094
▁Body	-13095
▁Bond	-13096
▁Curr	-13097
▁Dism	-13098
▁Link	-13099
▁Pace	-13100
▁Rece	-13101
▁Thor	-13102
▁\$14	-13103
▁\$30	-13104
▁\$48	-13105
▁elig	-13106
▁hers	-13107
▁pose	-13108
▁snow	-13109
iously	-13110
riends	-13111
▁Hague	-13112
▁assum	-13113
▁avert	-13114
▁fuels	-13115
▁lists	-13116
▁slain	-13117
▁thumb	-13118
▁upper	-13119
▁wrist	-13120
▁youth	-13121
▁downgr	-13122
▁hurdle	-13123
▁talked	-13124
▁trophy	-13125
swapping	-13126
▁Deficit	-13127
▁Guillen	-13128
▁catcher	-13129
▁clearly	-13130
▁excited	-13131
▁mention	-13132
▁ranging	-13133
▁Hendrick	-13134
▁Lawsuits	-13135
▁NOVEMBER	-13136
▁Paralymp	-13137
▁Portugal	-13138
▁Slobodan	-13139
▁Svetlana	-13140
▁conceded	-13141
▁deciding	-13142
▁homeland	-13143
▁websites	-13144
identified	-13145
▁Amsterdam	-13146
▁BellSouth	-13147
▁Communist	-13148
▁Education	-13149
▁Junichiro	-13150
▁Marketing	-13151
▁freestyle	-13152
▁locations	-13153
▁Challenges	-13154
▁reflecting	-13155
▁regulation	-13156
▁exploration	-13157
▁Shareholders	-13158
▁surprisingly	-13159
▁cybersecurity	-13160
▁investigations	-13161
AF	-13162
NO	-13163
iop	-13164
lis	-13165
oup	-13166
▁(8	-13167
▁HK	-13168
▁NT	-13169
▁TA	-13170
Bert	-13171
akar	-13172
amas	-13173
cite	-13174
hole	-13175
ipei	-13176
vens	-13177
▁Cay	-13178
▁Cox	-13179
▁Gem	-13180
▁Ice	-13181
▁Lie	-13182
▁Pos	-13183
▁Seb	-13184
▁Sel	-13185
▁Unc	-13186
▁Vie	-13187
▁WMC	-13188
▁dip	-13189
▁ing	-13190
▁tar	-13191
lects	-13192
nesty	-13193
trick	-13194
▁Arts	-13195
▁Cars	-13196
▁GENE	-13197
▁Init	-13198
▁Theo	-13199
▁\$51	-13200
▁entr	-13201
▁flee	-13202
▁medi	-13203
▁wing	-13204
astrop	-13205
bourne	-13206
▁Alban	-13207
▁Blade	-13208
▁Croat	-13209
▁Steps	-13210
▁accur	-13211
▁alarm	-13212
▁await	-13213
▁boxes	-13214
▁elder	-13215
▁exist	-13216
▁fleet	-13217
▁instr	-13218
▁mouse	-13219
▁seize	-13220
▁smugg	-13221
onsored	-13222
▁#36;10	-13223
▁Arnold	-13224
▁Serbia	-13225
▁Texans	-13226
▁Yellow	-13227
▁detect	-13228
▁harder	-13229
▁meteor	-13230
▁symbol	-13231
Bertrand	-13232
otebooks	-13233
▁Burundi	-13234
▁Charged	-13235
▁Griffin	-13236
▁Lexmark	-13237
▁Spencer	-13238
▁abusing	-13239
▁bounced	-13240
▁formats	-13241
▁widened	-13242
rehensive	-13243
▁Continue	-13244
▁Investor	-13245
▁Spammers	-13246
▁location	-13247
▁reconstr	-13248
▁signaled	-13249
▁universe	-13250
▁Antarctic	-13251
▁Computers	-13252
▁Coulthard	-13253
▁Inflation	-13254
▁apartment	-13255
▁essential	-13256
▁followers	-13257
▁industries	-13258
▁introduces	-13259
▁lackluster	-13260
▁Investments	-13261
▁coordinator	-13262
▁participate	-13263
▁recommended	-13264
▁transaction	-13265
▁overshadowed	-13266
BB	-13267
PO	-13268
Tr	-13269
ci	-13270
-19	-13271
Lay	-13272
eph	-13273
lig	-13274
▁Ga	-13275
▁ru	-13276
Link	-13277
OUGH	-13278
Time	-13279
ardo	-13280
mont	-13281
odom	-13282
rien	-13283
rosc	-13284
uous	-13285
▁101	-13286
▁50-	-13287
▁900	-13288
▁DEN	-13289
▁GRE	-13290
▁Hav	-13291
▁Jup	-13292
▁MLS	-13293
▁Our	-13294
▁RIM	-13295
▁Wis	-13296
▁nor	-13297
▁wal	-13298
ESTER	-13299
arely	-13300
echan	-13301
olved	-13302
ovich	-13303
rival	-13304
rying	-13305
steps	-13306
vered	-13307
▁Butt	-13308
▁Dale	-13309
▁Mail	-13310
▁Rent	-13311
▁Ring	-13312
▁Sosa	-13313
▁WebS	-13314
▁loud	-13315
▁soar	-13316
▁visa	-13317
BOURNE	-13318
Israel	-13319
incess	-13320
incial	-13321
insula	-13322
ottest	-13323
▁ABUJA	-13324
▁Class	-13325
▁Corey	-13326
▁Damon	-13327
▁Execs	-13328
▁Gener	-13329
▁Jimmy	-13330
▁Jumps	-13331
▁Lifts	-13332
▁Named	-13333
▁Parad	-13334
▁Weeks	-13335
▁\$1.1	-13336
▁array	-13337
▁cycle	-13338
▁enemy	-13339
▁hints	-13340
▁legit	-13341
▁manip	-13342
▁miner	-13343
▁ocean	-13344
▁wrote	-13345
regular	-13346
rigging	-13347
▁20,000	-13348
▁Broker	-13349
▁Forget	-13350
▁Graham	-13351
▁Sebast	-13352
▁cancel	-13353
▁duties	-13354
▁hazard	-13355
▁outfit	-13356
▁sample	-13357
▁sealed	-13358
▁useful	-13359
Business	-13360
▁Acquire	-13361
▁Augusto	-13362
▁History	-13363
▁Opening	-13364
▁Victims	-13365
▁bargain	-13366
▁convinc	-13367
▁exploit	-13368
▁formula	-13369
▁highway	-13370
▁writing	-13371
▁Austrian	-13372
▁Barclays	-13373
▁Managers	-13374
▁Randolph	-13375
▁mainland	-13376
▁orbiting	-13377
▁reporter	-13378
▁spectrum	-13379
▁unwanted	-13380
▁MELBOURNE	-13381
▁attacking	-13382
▁considers	-13383
▁knowledge	-13384
▁promoting	-13385
▁submitted	-13386
▁attempting	-13387
▁currencies	-13388
▁maintained	-13389
▁separatists	-13390
▁Laboratories	-13391
▁Supercomputer	-13392
▁opportunities	-13393
▁Pharmaceuticals	-13394
?"	-13395
DO	-13396
NM	-13397
TM	-13398
dig	-13399
▁Il	-13400
▁id	-13401
INCE	-13402
ablo	-13403
erto	-13404
five	-13405
mile	-13406
zing	-13407
▁103	-13408
▁Blo	-13409
▁DSL	-13410
▁Fro	-13411
▁Hay	-13412
▁Lam	-13413
▁Utd	-13414
Watch	-13415
annon	-13416
dated	-13417
ensed	-13418
keley	-13419
kster	-13420
onaut	-13421
works	-13422
▁Bene	-13423
▁Grey	-13424
▁Indo	-13425
▁Madd	-13426
▁Ming	-13427
▁Nasa	-13428
▁Oval	-13429
▁PAUL	-13430
▁Read	-13431
▁Same	-13432
▁bats	-13433
▁bone	-13434
▁mild	-13435
▁palm	-13436
▁scor	-13437
ansson	-13438
istani	-13439
thodox	-13440
▁Avoid	-13441
▁Blues	-13442
▁Coles	-13443
▁PITTS	-13444
▁analy	-13445
▁colon	-13446
▁flies	-13447
▁folks	-13448
▁gloom	-13449
▁rings	-13450
▁sabot	-13451
▁shops	-13452
▁Beyond	-13453
▁Danger	-13454
▁Deaths	-13455
▁Diplom	-13456
▁Franco	-13457
▁Gaming	-13458
▁Losing	-13459
▁Mugabe	-13460
▁Ramadi	-13461
▁Taipei	-13462
▁Temple	-13463
▁fixing	-13464
▁golfer	-13465
▁hardly	-13466
▁window	-13467
▁Defends	-13468
▁Housing	-13469
▁Nicolas	-13470
▁chicken	-13471
▁consequ	-13472
▁cracked	-13473
▁hanging	-13474
▁hurdles	-13475
▁liberal	-13476
▁marines	-13477
▁nervous	-13478
▁obvious	-13479
▁restive	-13480
▁secrets	-13481
▁section	-13482
▁sliding	-13483
▁smoking	-13484
▁society	-13485
▁viewing	-13486
▁writers	-13487
ournament	-13488
▁Berkeley	-13489
▁Franklin	-13490
▁Yugoslav	-13491
▁anywhere	-13492
▁awaiting	-13493
▁firewall	-13494
▁focusing	-13495
▁hydrogen	-13496
▁inspired	-13497
▁predicts	-13498
▁sandwich	-13499
▁sponsors	-13500
▁subpoena	-13501
▁Canadians	-13502
▁Johansson	-13503
▁Ministers	-13504
▁Recording	-13505
▁recalling	-13506
▁testified	-13507
stitutional	-13508
▁approached	-13509
▁extremists	-13510
▁militiamen	-13511
▁undergoing	-13512
▁Quarterback	-13513
▁restrictions	-13514
13	-13515
Al	-13516
SM	-13517
iy	-13518
km	-13519
MRK	-13520
OOD	-13521
aba	-13522
ito	-13523
nan	-13524
una	-13525
▁(6	-13526
▁95	-13527
▁Wa	-13528
asse	-13529
bery	-13530
ieri	-13531
kara	-13532
▁Arr	-13533
▁DIE	-13534
▁Dal	-13535
▁Mur	-13536
▁UFJ	-13537
▁Var	-13538
▁Wer	-13539
ollah	-13540
▁Brun	-13541
▁Dill	-13542
▁Dual	-13543
▁Fiat	-13544
▁Full	-13545
▁Liga	-13546
▁Name	-13547
▁Role	-13548
▁\$16	-13549
▁bust	-13550
▁jeop	-13551
▁pump	-13552
▁seal	-13553
Server	-13554
aughan	-13555
icting	-13556
ilicon	-13557
▁4,000	-13558
▁Aires	-13559
▁Capri	-13560
▁Flood	-13561
▁Total	-13562
▁label	-13563
▁lobby	-13564
▁lunch	-13565
▁notes	-13566
▁pride	-13567
▁slows	-13568
▁waste	-13569
endants	-13570
ignment	-13571
looking	-13572
tenance	-13573
▁Ansari	-13574
▁Barros	-13575
▁Centre	-13576
▁Dennis	-13577
▁Ethiop	-13578
▁Facing	-13579
▁Foster	-13580
▁Orbitz	-13581
▁Pavano	-13582
▁Rescue	-13583
▁Within	-13584
▁barred	-13585
▁comply	-13586
▁depend	-13587
▁medall	-13588
▁plunge	-13589
▁probes	-13590
▁stance	-13591
▁workst	-13592
alkeeper	-13593
evitable	-13594
oriented	-13595
▁Britons	-13596
▁Captain	-13597
▁Crystal	-13598
▁Jenkins	-13599
▁Winning	-13600
▁airstri	-13601
▁bombers	-13602
▁clashed	-13603
▁closure	-13604
▁explore	-13605
▁handing	-13606
▁herself	-13607
▁lending	-13608
▁staying	-13609
▁sustain	-13610
▁teaming	-13611
▁Fernando	-13612
▁branches	-13613
▁formerly	-13614
▁veterans	-13615
▁Barghouti	-13616
▁dedicated	-13617
▁fundament	-13618
▁hospitals	-13619
▁requested	-13620
▁sidelines	-13621
▁PITTSBURGH	-13622
▁Struggling	-13623
▁assessment	-13624
▁laboratory	-13625
▁Authorities	-13626
▁forthcoming	-13627
▁questioning	-13628
▁restructure	-13629
▁introduction	-13630
▁preparations	-13631
▁authentication	-13632
FS	-13633
GI	-13634
-28	-13635
PUR	-13636
abo	-13637
acc	-13638
iev	-13639
sen	-13640
▁6:	-13641
▁Ot	-13642
OUTH	-13643
book	-13644
cahn	-13645
gles	-13646
inas	-13647
only	-13648
oody	-13649
rete	-13650
usty	-13651
▁Alb	-13652
▁HAV	-13653
▁Hur	-13654
▁Laz	-13655
▁PAL	-13656
▁SQL	-13657
Brien	-13658
liner	-13659
▁Brem	-13660
▁Brid	-13661
▁Cape	-13662
▁Mumb	-13663
▁Nash	-13664
▁\$44	-13665
▁bump	-13666
▁dogs	-13667
▁ugly	-13668
▁yuan	-13669
esliga	-13670
inidad	-13671
▁Eases	-13672
▁Guerr	-13673
▁Henin	-13674
▁Icahn	-13675
▁Large	-13676
▁Needs	-13677
▁Sends	-13678
▁Sport	-13679
▁Tries	-13680
▁Vital	-13681
▁arena	-13682
▁disgr	-13683
▁grabs	-13684
▁grass	-13685
▁moons	-13686
▁stamp	-13687
▁trick	-13688
illance	-13689
ocation	-13690
▁Across	-13691
▁GENEVA	-13692
▁Nevada	-13693
▁Recall	-13694
▁Secure	-13695
▁diving	-13696
▁heated	-13697
▁raided	-13698
▁square	-13699
▁tumble	-13700
business	-13701
ibillion	-13702
▁Accused	-13703
▁Bernard	-13704
▁Bradley	-13705
▁Details	-13706
▁Dispute	-13707
▁Hotmail	-13708
▁Myskina	-13709
▁assured	-13710
▁burning	-13711
▁congrat	-13712
▁hosting	-13713
▁shelves	-13714
▁stories	-13715
▁Capriati	-13716
▁Marshall	-13717
▁Trinidad	-13718
▁argument	-13719
▁channels	-13720
▁convince	-13721
▁countrys	-13722
▁killings	-13723
▁learning	-13724
▁settling	-13725
▁sideline	-13726
▁thoughts	-13727
▁troubles	-13728
▁Melbourne	-13729
▁interface	-13730
▁seemingly	-13731
▁technique	-13732
▁Bundesliga	-13733
▁commanders	-13734
▁highlights	-13735
▁painkiller	-13736
▁restaurants	-13737
▁dramatically	-13738
▁intervention	-13739
▁collaboration	-13740
Hz	-13741
ATI	-13742
Blo	-13743
NAS	-13744
ete	-13745
▁79	-13746
▁Ox	-13747
Gold	-13748
Hard	-13749
aved	-13750
erse	-13751
nyse	-13752
ocal	-13753
oppy	-13754
word	-13755
▁Agr	-13756
▁COM	-13757
▁Ent	-13758
▁Gut	-13759
▁NOR	-13760
▁WPP	-13761
▁maj	-13762
ansom	-13763
ellar	-13764
ftime	-13765
ishop	-13766
isure	-13767
ounty	-13768
owski	-13769
▁EAST	-13770
▁Hoya	-13771
▁Iron	-13772
▁Mini	-13773
▁Parc	-13774
▁Task	-13775
▁Wade	-13776
▁calc	-13777
▁epic	-13778
▁hype	-13779
▁skin	-13780
erring	-13781
estine	-13782
isoned	-13783
onting	-13784
▁Billy	-13785
▁Hamza	-13786
▁aired	-13787
▁atroc	-13788
▁grown	-13789
▁relax	-13790
▁rural	-13791
▁spare	-13792
▁spike	-13793
▁Ankara	-13794
▁Bremen	-13795
▁Closer	-13796
▁Column	-13797
▁Darren	-13798
▁Fourth	-13799
▁Images	-13800
▁Impact	-13801
▁Mosque	-13802
▁acting	-13803
▁birdie	-13804
▁breath	-13805
▁compar	-13806
▁please	-13807
▁reluct	-13808
▁singer	-13809
▁transl	-13810
▁Alleged	-13811
▁Finally	-13812
▁Vaughan	-13813
▁buyback	-13814
▁coastal	-13815
▁crushed	-13816
▁jumping	-13817
▁neither	-13818
▁plagued	-13819
▁suffers	-13820
▁tribute	-13821
▁windows	-13822
▁Handheld	-13823
▁Harrison	-13824
▁Reporter	-13825
▁Spaniard	-13826
▁Suspects	-13827
▁advisory	-13828
▁detected	-13829
▁enhanced	-13830
▁missions	-13831
▁obtained	-13832
▁outgoing	-13833
▁sexually	-13834
▁slipping	-13835
▁weakened	-13836
▁Community	-13837
▁divisions	-13838
▁extremely	-13839
▁initially	-13840
▁otherwise	-13841
▁personnel	-13842
▁promotion	-13843
▁revealing	-13844
▁telescope	-13845
▁Introduces	-13846
▁contention	-13847
▁frustrated	-13848
▁governance	-13849
▁volleyball	-13850
▁controlling	-13851
▁counterfeit	-13852
▁enterprises	-13853
▁performances	-13854
▁productivity	-13855
▁communication	-13856
▁comprehensive	-13857
▁Transportation	-13858
Or	-13859
Sec	-13860
TTE	-13861
iac	-13862
oos	-13863
pat	-13864
phi	-13865
▁HB	-13866
Deal	-13867
afes	-13868
esco	-13869
iful	-13870
ihad	-13871
sten	-13872
▁130	-13873
▁191	-13874
▁350	-13875
▁Had	-13876
▁INQ	-13877
▁Jol	-13878
▁Rum	-13879
▁dil	-13880
aults	-13881
ierry	-13882
pound	-13883
utrit	-13884
▁Bear	-13885
▁Josh	-13886
▁Reve	-13887
▁Tell	-13888
▁Vick	-13889
▁\$17	-13890
▁\$23	-13891
▁exch	-13892
▁foul	-13893
▁mood	-13894
▁sail	-13895
▁scar	-13896
▁ster	-13897
ooting	-13898
search	-13899
▁6,000	-13900
▁Filip	-13901
▁Image	-13902
▁Osset	-13903
▁Stage	-13904
▁Truck	-13905
▁WiMax	-13906
▁\$7.7	-13907
▁catal	-13908
▁demol	-13909
▁globe	-13910
▁harsh	-13911
▁novel	-13912
▁slips	-13913
▁wages	-13914
TechWeb	-13915
amework	-13916
ificial	-13917
▁Bashir	-13918
▁Benson	-13919
▁Common	-13920
▁Delphi	-13921
▁Knight	-13922
▁Lazard	-13923
▁Marwan	-13924
▁McNabb	-13925
▁Mumbai	-13926
▁Photos	-13927
▁Postal	-13928
▁clouds	-13929
▁counts	-13930
▁cruise	-13931
▁dipped	-13932
▁dumped	-13933
▁fields	-13934
▁papers	-13935
▁robots	-13936
▁throne	-13937
▁tunnel	-13938
Atlantic	-13939
Hardenne	-13940
▁Partner	-13941
▁Records	-13942
▁Thierry	-13943
▁apology	-13944
▁charity	-13945
▁durable	-13946
▁factors	-13947
▁handful	-13948
▁mandate	-13949
▁profile	-13950
▁reverse	-13951
Bloomberg	-13952
▁Mountain	-13953
▁Northrop	-13954
▁Platform	-13955
▁Powerful	-13956
▁Released	-13957
▁Rescuers	-13958
▁blocking	-13959
▁climbing	-13960
▁crossing	-13961
▁designer	-13962
▁hometown	-13963
▁militias	-13964
▁Broadcast	-13965
▁PowerBook	-13966
▁Suspended	-13967
▁cancelled	-13968
▁clubhouse	-13969
▁continent	-13970
▁discrimin	-13971
▁projected	-13972
▁remainder	-13973
▁underwent	-13974
▁unveiling	-13975
▁convincing	-13976
▁extinction	-13977
▁appointment	-13978
▁campaigning	-13979
▁communities	-13980
▁substantial	-13981
▁conventional	-13982
▁investigated	-13983
DC	-13984
FD	-13985
II	-13986
Bar	-13987
ESS	-13988
axy	-13989
bsp	-13990
fts	-13991
opt	-13992
ouk	-13993
▁GU	-13994
▁RB	-13995
▁VP	-13996
AAPL	-13997
agne	-13998
iggs	-13999
mson	-14000
ovic	-14001
park	-14002
utri	-14003
wind	-14004
▁#82	-14005
▁Ath	-14006
▁Fig	-14007
▁Fly	-14008
▁Kiw	-14009
▁Maj	-14010
▁Omn	-14011
▁Pix	-14012
▁SUV	-14013
▁Tar	-14014
▁Wol	-14015
▁cov	-14016
▁mel	-14017
▁pod	-14018
▁rid	-14019
▁ups	-14020
ALLAS	-14021
digit	-14022
essel	-14023
eting	-14024
ispam	-14025
keyes	-14026
north	-14027
riers	-14028
riven	-14029
uerto	-14030
ummer	-14031
▁Ease	-14032
▁Girl	-14033
▁Held	-14034
▁Lows	-14035
▁Mats	-14036
▁Page	-14037
▁Shui	-14038
▁Tung	-14039
▁Uran	-14040
▁Wang	-14041
▁clar	-14042
▁coin	-14043
▁deny	-14044
▁diox	-14045
▁fulf	-14046
▁nbsp	-14047
▁reor	-14048
▁toys	-14049
▁tune	-14050
aments	-14051
thirds	-14052
threat	-14053
uminum	-14054
▁#36;8	-14055
▁2001.	-14056
▁Bronx	-14057
▁Bryan	-14058
▁JBoss	-14059
▁Jeter	-14060
▁Opera	-14061
▁Trend	-14062
▁Turin	-14063
▁Wheat	-14064
▁aware	-14065
▁crush	-14066
▁debts	-14067
▁forum	-14068
▁safer	-14069
▁Bright	-14070
▁DALLAS	-14071
▁Differ	-14072
▁Goosen	-14073
▁Javier	-14074
▁Joseph	-14075
▁Libyan	-14076
▁McCain	-14077
▁Passes	-14078
▁banker	-14079
▁breach	-14080
▁breast	-14081
▁bypass	-14082
▁crater	-14083
▁desire	-14084
▁hidden	-14085
▁hiding	-14086
▁labour	-14087
▁misses	-14088
▁relent	-14089
▁speaks	-14090
▁timing	-14091
▁Barrett	-14092
▁Barroso	-14093
▁Charter	-14094
▁Francis	-14095
▁Kellogg	-14096
▁Killing	-14097
▁Norodom	-14098
▁Ponting	-14099
▁Working	-14100
▁bruised	-14101
▁capping	-14102
▁captive	-14103
▁casinos	-14104
▁designs	-14105
▁fishing	-14106
▁leftist	-14107
▁rallies	-14108
▁retains	-14109
▁silence	-14110
▁wedding	-14111
▁Bernhard	-14112
▁Cellular	-14113
▁Charlton	-14114
▁Guerrero	-14115
▁Insurers	-14116
▁Orthodox	-14117
▁Parcells	-14118
▁companys	-14119
▁covering	-14120
▁disabled	-14121
▁packages	-14122
▁stopping	-14123
▁transist	-14124
▁unmanned	-14125
PeopleSoft	-14126
▁Taiwanese	-14127
▁discussed	-14128
▁guarantee	-14129
▁lingering	-14130
▁notebooks	-14131
▁oversight	-14132
Palestinian	-14133
▁MasterCard	-14134
▁Tournament	-14135
▁assistance	-14136
▁conclusion	-14137
▁definitive	-14138
▁distribute	-14139
▁provincial	-14140
▁ultimately	-14141
▁undefeated	-14142
▁experienced	-14143
▁frustration	-14144
▁preparation	-14145
▁battleground	-14146
▁corporations	-14147
▁strengthened	-14148
▁transactions	-14149
EI	-14150
SW	-14151
KOK	-14152
OLM	-14153
cal	-14154
eon	-14155
iah	-14156
▁Ep	-14157
asks	-14158
azen	-14159
ermo	-14160
erts	-14161
zman	-14162
▁5-0	-14163
▁ANA	-14164
▁AND	-14165
▁Did	-14166
▁Gad	-14167
▁Gay	-14168
▁Hub	-14169
▁Ker	-14170
▁Mom	-14171
▁Qat	-14172
▁Unt	-14173
▁VAN	-14174
▁lig	-14175
▁max	-14176
▁nic	-14177
▁soy	-14178
▁wet	-14179
Force	-14180
adows	-14181
eware	-14182
impse	-14183
stadt	-14184
▁Anil	-14185
▁Aung	-14186
▁Caps	-14187
▁Cham	-14188
▁Decl	-14189
▁Feed	-14190
▁Hunt	-14191
▁Imam	-14192
▁Mine	-14193
▁Shin	-14194
▁Sinn	-14195
▁burd	-14196
▁furn	-14197
▁hair	-14198
▁href	-14199
▁slum	-14200
▁soil	-14201
▁wary	-14202
charge	-14203
iances	-14204
▁#147;	-14205
▁#148;	-14206
▁#36;7	-14207
▁Carly	-14208
▁Deals	-14209
▁Grant	-14210
▁Grows	-14211
▁Hands	-14212
▁Ident	-14213
▁Tracy	-14214
▁apply	-14215
▁cited	-14216
▁diagn	-14217
▁midst	-14218
▁mound	-14219
▁param	-14220
▁pharm	-14221
▁plate	-14222
▁prest	-14223
▁spate	-14224
▁toxic	-14225
▁truth	-14226
▁voter	-14227
▁walls	-14228
Silicon	-14229
delayed	-14230
ivalent	-14231
▁Albert	-14232
▁Annika	-14233
▁Border	-14234
▁Improv	-14235
▁Payton	-14236
▁Resume	-14237
▁Sheikh	-14238
▁Studio	-14239
▁Sybase	-14240
▁denial	-14241
▁pocket	-14242
▁quotas	-14243
▁refund	-14244
▁revamp	-14245
▁riding	-14246
iability	-14247
ordinary	-14248
▁BANGKOK	-14249
▁Clemson	-14250
▁Koreans	-14251
▁Species	-14252
▁Wallace	-14253
▁barrier	-14254
▁beneath	-14255
▁betting	-14256
▁cooling	-14257
▁defeats	-14258
▁hunters	-14259
▁looming	-14260
▁passion	-14261
▁pirates	-14262
▁registr	-14263
▁resorts	-14264
▁slumped	-14265
▁snapped	-14266
▁strange	-14267
isticated	-14268
sponsored	-14269
▁Arkansas	-14270
▁Highbury	-14271
▁Memorial	-14272
▁annually	-14273
▁arriving	-14274
▁disclose	-14275
▁evacuate	-14276
▁founders	-14277
▁incoming	-14278
▁knocking	-14279
▁monetary	-14280
▁monopoly	-14281
▁register	-14282
▁roadside	-14283
▁stealing	-14284
respondent	-14285
▁Coalition	-14286
▁Jordanian	-14287
▁Operating	-14288
▁Scientist	-14289
▁aftermath	-14290
▁bilateral	-14291
▁functions	-14292
▁mainframe	-14293
▁mortgages	-14294
▁municipal	-14295
▁responded	-14296
▁surrender	-14297
▁Interstate	-14298
▁Musicmatch	-14299
▁automotive	-14300
▁bargaining	-14301
▁collective	-14302
▁publishers	-14303
▁fingerprint	-14304
▁neighboring	-14305
▁multibillion	-14306
▁neighborhood	-14307
▁requirements	-14308
▁unidentified	-14309
▁SiliconValley	-14310
▁biotechnology	-14311
CR	-14312
EY	-14313
FK	-14314
-43	-14315
IEV	-14316
INE	-14317
amm	-14318
bek	-14319
bye	-14320
clk	-14321
lif	-14322
omo	-14323
wid	-14324
▁73	-14325
▁Ul	-14326
Doom	-14327
agra	-14328
alia	-14329
asma	-14330
ista	-14331
ixel	-14332
neft	-14333
olve	-14334
quer	-14335
▁0.6	-14336
▁1.2	-14337
▁CAP	-14338
▁biz	-14339
▁jur	-14340
aunch	-14341
erves	-14342
issan	-14343
leges	-14344
plane	-14345
▁1970	-14346
▁Barn	-14347
▁Bode	-14348
▁Days	-14349
▁Dist	-14350
▁Huge	-14351
▁KIEV	-14352
▁Pier	-14353
▁Surg	-14354
▁cycl	-14355
▁fren	-14356
▁inex	-14357
▁obsc	-14358
▁plum	-14359
▁trav	-14360
itched	-14361
▁BALCO	-14362
▁Crown	-14363
▁DUBAI	-14364
▁Hutch	-14365
▁Maath	-14366
▁Shane	-14367
▁Simon	-14368
▁Slide	-14369
▁Tyson	-14370
▁earns	-14371
▁hails	-14372
▁looms	-14373
▁mouth	-14374
▁pleas	-14375
▁revel	-14376
▁schol	-14377
▁spree	-14378
▁stole	-14379
▁suits	-14380
issions	-14381
setting	-14382
▁Domain	-14383
▁INDIAN	-14384
▁Malone	-14385
▁Nissan	-14386
▁Owners	-14387
▁Pocket	-14388
▁Puerto	-14389
▁Quebec	-14390
▁Sergio	-14391
▁buoyed	-14392
▁convin	-14393
▁crowds	-14394
▁derail	-14395
▁kidney	-14396
▁nature	-14397
▁parade	-14398
▁routes	-14399
▁trades	-14400
▁Affairs	-14401
▁Jupiter	-14402
▁Servers	-14403
▁Society	-14404
▁autonom	-14405
▁crystal	-14406
▁defiant	-14407
▁eServer	-14408
▁fraudul	-14409
▁invited	-14410
▁laptops	-14411
▁matched	-14412
▁rescued	-14413
▁shocked	-14414
▁winless	-14415
▁Download	-14416
▁Wildlife	-14417
▁adoption	-14418
▁entirely	-14419
▁modified	-14420
▁murdered	-14421
▁outlined	-14422
▁pressing	-14423
▁searched	-14424
▁shootout	-14425
▁smallest	-14426
▁tailback	-14427
▁trillion	-14428
▁vacation	-14429
▁Expansion	-14430
▁Transport	-14431
▁conflicts	-14432
▁confusion	-14433
▁courtroom	-14434
▁irregular	-14435
▁obtaining	-14436
▁performed	-14437
▁technolog	-14438
▁turnovers	-14439
▁undermine	-14440
▁atrocities	-14441
▁eliminated	-14442
▁celebrating	-14443
▁contributed	-14444
▁southeastern	-14445
▁temperatures	-14446
▁consolidation	-14447
▁supercomputing	-14448
29	-14449
BUS	-14450
elo	-14451
hab	-14452
ivo	-14453
▁7:	-14454
▁Rh	-14455
Bush	-14456
arms	-14457
cash	-14458
club	-14459
enko	-14460
hess	-14461
iago	-14462
iots	-14463
keys	-14464
mode	-14465
opic	-14466
oria	-14467
robi	-14468
uits	-14469
ycle	-14470
▁0.3	-14471
▁10:	-14472
▁12:	-14473
▁2.8	-14474
▁5-3	-14475
▁802	-14476
▁ARM	-14477
▁Bou	-14478
▁Bru	-14479
▁Hud	-14480
▁Num	-14481
▁Puj	-14482
▁Ran	-14483
▁cod	-14484
▁duo	-14485
▁jaw	-14486
▁kit	-14487
▁nan	-14488
▁sor	-14489
China	-14490
aples	-14491
berry	-14492
green	-14493
iSign	-14494
isley	-14495
istol	-14496
orter	-14497
ouver	-14498
rence	-14499
rieve	-14500
three	-14501
▁Burt	-14502
▁CARE	-14503
▁Cavs	-14504
▁Gamb	-14505
▁Lane	-14506
▁Tall	-14507
▁Vanc	-14508
▁\$19	-14509
▁buff	-14510
▁diet	-14511
▁luck	-14512
▁nice	-14513
▁nose	-14514
▁slim	-14515
author	-14516
berger	-14517
compet	-14518
owners	-14519
ulsion	-14520
▁2000.	-14521
▁ASEAN	-14522
▁AUSTR	-14523
▁Costa	-14524
▁Fatah	-14525
▁Felix	-14526
▁Guide	-14527
▁Rosen	-14528
▁Split	-14529
▁Stone	-14530
▁Techn	-14531
▁Visit	-14532
▁Worth	-14533
▁heels	-14534
▁outsk	-14535
▁print	-14536
▁reaff	-14537
▁saves	-14538
▁stats	-14539
▁Academ	-14540
▁Athlon	-14541
▁Buying	-14542
▁Nagpur	-14543
▁Opener	-14544
▁Viagra	-14545
▁Vitali	-14546
▁burned	-14547
▁config	-14548
▁histor	-14549
▁holder	-14550
▁nights	-14551
▁outlaw	-14552
▁sounds	-14553
▁spaces	-14554
▁superb	-14555
NEAPOLIS	-14556
friendly	-14557
▁ANAHEIM	-14558
▁Alberta	-14559
▁Because	-14560
▁Efforts	-14561
▁Ferrero	-14562
▁Futures	-14563
▁Gerhard	-14564
▁Maathai	-14565
▁OAKLAND	-14566
▁Playoff	-14567
▁Selling	-14568
▁Vaccine	-14569
▁accepts	-14570
▁artists	-14571
▁ceiling	-14572
▁covered	-14573
▁debates	-14574
▁pattern	-14575
▁trainer	-14576
▁Georgian	-14577
▁Jennifer	-14578
▁Starting	-14579
▁Students	-14580
▁VeriSign	-14581
▁acquires	-14582
▁advisers	-14583
▁brothers	-14584
▁damaging	-14585
▁ordering	-14586
▁scandals	-14587
▁speaking	-14588
▁Banknorth	-14589
▁Employees	-14590
▁Residents	-14591
▁activated	-14592
▁borrowing	-14593
▁generally	-14594
▁notorious	-14595
▁substance	-14596
operability	-14597
▁approaches	-14598
▁checkpoint	-14599
▁goalkeeper	-14600
▁inevitable	-14601
▁statistics	-14602
▁directories	-14603
▁genetically	-14604
▁residential	-14605
SiliconValley	-14606
;9	-14607
NS	-14608
la	-14609
ANE	-14610
NYS	-14611
dep	-14612
tte	-14613
▁Aj	-14614
ivan	-14615
made	-14616
mans	-14617
rish	-14618
spec	-14619
uese	-14620
▁1-2	-14621
▁1.1	-14622
▁104	-14623
▁AIG	-14624
▁Bal	-14625
▁Fab	-14626
▁Nav	-14627
▁PSV	-14628
▁Ton	-14629
▁agg	-14630
▁bot	-14631
▁gov	-14632
Grand	-14633
abbed	-14634
onium	-14635
▁Bids	-14636
▁Ferd	-14637
▁LAKE	-14638
▁Lack	-14639
▁Loeb	-14640
▁Pete	-14641
▁Visa	-14642
▁WEST	-14643
▁spur	-14644
▁stom	-14645
▁tips	-14646
▁upro	-14647
▁wrap	-14648
iaries	-14649
likely	-14650
ulator	-14651
urches	-14652
ycling	-14653
▁BEACH	-14654
▁Canon	-14655
▁Catal	-14656
▁Rugby	-14657
▁Rutan	-14658
▁Ultra	-14659
▁Volvo	-14660
▁Yemen	-14661
▁amend	-14662
▁appet	-14663
▁badly	-14664
▁raced	-14665
century	-14666
▁30,000	-14667
▁Acquis	-14668
▁Behead	-14669
▁Celebr	-14670
▁Devils	-14671
▁Pujols	-14672
▁Trying	-14673
▁hacker	-14674
▁lashed	-14675
▁lender	-14676
▁method	-14677
▁parach	-14678
▁poured	-14679
▁scaled	-14680
▁tipped	-14681
ernandez	-14682
▁Finnish	-14683
▁Kingdom	-14684
▁Paisley	-14685
▁Perfect	-14686
▁Scandal	-14687
▁Testing	-14688
▁arguing	-14689
▁birdies	-14690
▁chapter	-14691
▁dragged	-14692
▁elderly	-14693
▁fielder	-14694
▁gesture	-14695
▁grounds	-14696
▁letting	-14697
▁reacted	-14698
▁recruit	-14699
▁robotic	-14700
▁smashed	-14701
▁Columbus	-14702
▁Internal	-14703
▁Medicare	-14704
▁Princess	-14705
▁Property	-14706
▁crushing	-14707
▁hearings	-14708
▁modestly	-14709
▁redeploy	-14710
▁Cambridge	-14711
▁EarthLink	-14712
▁Vancouver	-14713
▁accepting	-14714
▁collision	-14715
▁inspector	-14716
▁outskirts	-14717
▁rejecting	-14718
▁traveling	-14719
▁violation	-14720
▁Candidates	-14721
▁Portuguese	-14722
▁capability	-14723
▁discussion	-14724
▁equivalent	-14725
▁escalating	-14726
▁persistent	-14727
▁transition	-14728
▁underlying	-14729
▁MINNEAPOLIS	-14730
▁declaration	-14731
▁maintenance	-14732
▁anticipation	-14733
▁embarrassing	-14734
▁organisation	-14735
▁southwestern	-14736
▁sophisticated	-14737
▁specification	-14738
HD	-14739
RN	-14740
ATH	-14741
COU	-14742
Don	-14743
iya	-14744
lev	-14745
ogh	-14746
oop	-14747
pin	-14748
▁9:	-14749
Cube	-14750
area	-14751
east	-14752
emin	-14753
pose	-14754
quez	-14755
▁1.7	-14756
▁6-5	-14757
▁Dor	-14758
▁FOO	-14759
▁HIV	-14760
▁IRS	-14761
▁Mit	-14762
▁axe	-14763
▁gig	-14764
▁meg	-14765
▁nob	-14766
▁woo	-14767
Guard	-14768
KHOLM	-14769
about	-14770
enzie	-14771
grams	-14772
loads	-14773
opher	-14774
▁Bald	-14775
▁Caes	-14776
▁Haas	-14777
▁Jail	-14778
▁clus	-14779
▁hall	-14780
▁nick	-14781
▁prol	-14782
▁veto	-14783
aunted	-14784
ethlis	-14785
ulture	-14786
ushita	-14787
▁...\\	-14788
▁Appar	-14789
▁Bring	-14790
▁Canas	-14791
▁Conte	-14792
▁Coors	-14793
▁Fails	-14794
▁Globe	-14795
▁Novak	-14796
▁Postp	-14797
▁Refug	-14798
▁Shift	-14799
▁Swift	-14800
▁Torre	-14801
▁album	-14802
▁blown	-14803
▁disag	-14804
▁drift	-14805
▁forge	-14806
▁habit	-14807
▁magic	-14808
▁risen	-14809
▁soars	-14810
▁tense	-14811
▁types	-14812
▁ultra	-14813
▁DENVER	-14814
▁Having	-14815
▁Hokies	-14816
▁Invent	-14817
▁Monaco	-14818
▁Pushes	-14819
▁Thanou	-14820
▁Vander	-14821
▁ambush	-14822
▁degree	-14823
▁museum	-14824
▁overhe	-14825
▁oxygen	-14826
▁privat	-14827
▁reader	-14828
▁rebell	-14829
▁sequel	-14830
▁AUSTRAL	-14831
▁Banking	-14832
▁Doubles	-14833
▁Expects	-14834
▁Factory	-14835
▁Kurdish	-14836
▁Mariano	-14837
▁Natural	-14838
▁Options	-14839
▁barrage	-14840
▁casting	-14841
▁greeted	-14842
▁hottest	-14843
▁hurting	-14844
▁oversee	-14845
▁princip	-14846
▁sounded	-14847
▁touched	-14848
▁variant	-14849
▁Agricult	-14850
▁BASEBALL	-14851
▁Pensions	-14852
▁Roethlis	-14853
▁Slovakia	-14854
▁attended	-14855
▁browsers	-14856
▁catching	-14857
▁deadlock	-14858
▁frontier	-14859
▁halftime	-14860
▁innocent	-14861
▁judgment	-14862
▁narrowly	-14863
▁numerous	-14864
▁receives	-14865
▁relieved	-14866
▁reminder	-14867
▁securing	-14868
▁Valentino	-14869
▁centuries	-14870
▁collected	-14871
▁convinced	-14872
▁Commercial	-14873
▁Liberation	-14874
▁negotiator	-14875
▁satellites	-14876
▁Northeastern	-14877
▁surveillance	-14878
▁microprocessor	-14879
LM	-14880
oS	-14881
sa	-14882
-16	-14883
Gen	-14884
INN	-14885
ONY	-14886
ais	-14887
▁TR	-14888
▁ju	-14889
OUND	-14890
What	-14891
anna	-14892
etic	-14893
gart	-14894
iman	-14895
list	-14896
mons	-14897
riot	-14898
spot	-14899
ucci	-14900
urry	-14901
▁2.3	-14902
▁22-	-14903
▁Cov	-14904
▁DEC	-14905
▁Dog	-14906
▁ISS	-14907
▁Osw	-14908
▁SAL	-14909
▁Sin	-14910
▁Son	-14911
▁shy	-14912
Iraqi	-14913
achov	-14914
agent	-14915
aksin	-14916
antly	-14917
first	-14918
inand	-14919
major	-14920
reens	-14921
▁Exit	-14922
▁FOOT	-14923
▁HBOS	-14924
▁Lion	-14925
▁Myer	-14926
▁Quin	-14927
▁apps	-14928
▁bars	-14929
▁brut	-14930
▁educ	-14931
▁epid	-14932
▁feud	-14933
▁lean	-14934
▁pref	-14935
▁stif	-14936
elines	-14937
ichick	-14938
linary	-14939
ocated	-14940
reated	-14941
ynamic	-14942
▁Chain	-14943
▁Crack	-14944
▁Jiang	-14945
▁Lance	-14946
▁Mason	-14947
▁Perez	-14948
▁Qatar	-14949
▁SOUTH	-14950
▁Techs	-14951
▁Teleg	-14952
▁Train	-14953
▁\$600	-14954
▁bellw	-14955
▁breed	-14956
▁elbow	-14957
▁junta	-14958
▁laugh	-14959
▁rover	-14960
▁thick	-14961
▁tired	-14962
CHESTER	-14963
ailable	-14964
earlier	-14965
edition	-14966
elected	-14967
limited	-14968
▁CHARLO	-14969
▁Debuts	-14970
▁Device	-14971
▁Hawaii	-14972
▁Kumble	-14973
▁Legisl	-14974
▁Makers	-14975
▁Propos	-14976
▁advent	-14977
▁affair	-14978
▁cheese	-14979
▁diesel	-14980
▁eating	-14981
▁gotten	-14982
▁mechan	-14983
▁slalom	-14984
▁sprint	-14985
▁wicket	-14986
▁Coaches	-14987
▁Crashes	-14988
▁Flights	-14989
▁Hispano	-14990
▁McGrady	-14991
▁Message	-14992
▁Perform	-14993
▁Seeking	-14994
▁Thaksin	-14995
▁blaming	-14996
▁branded	-14997
▁citizen	-14998
▁coveted	-14999
▁cruised	-15000
▁indexes	-15001
▁listing	-15002
▁marched	-15003
▁restate	-15004
▁routers	-15005
▁tariffs	-15006
▁tighten	-15007
▁viewers	-15008
▁warrant	-15009
democracy	-15010
▁Bombings	-15011
▁Comments	-15012
▁Pipeline	-15013
▁Santiago	-15014
▁advertis	-15015
▁concrete	-15016
▁develops	-15017
▁finances	-15018
▁sabotage	-15019
▁sessions	-15020
▁Belichick	-15021
▁Egyptians	-15022
▁STOCKHOLM	-15023
▁athletics	-15024
▁contender	-15025
▁evacuated	-15026
▁medallist	-15027
▁rejection	-15028
▁reversing	-15029
▁accelerate	-15030
▁associated	-15031
▁suspicious	-15032
▁intensified	-15033
▁developments	-15034
▁reorganization	-15035
MD	-15036
NC	-15037
-05	-15038
ICK	-15039
Pad	-15040
SQL	-15041
fty	-15042
kok	-15043
uru	-15044
wyn	-15045
zam	-15046
▁98	-15047
Corp	-15048
agan	-15049
note	-15050
take	-15051
ukes	-15052
▁(10	-15053
▁40-	-15054
▁Ala	-15055
▁LUM	-15056
▁Ned	-15057
▁Tan	-15058
▁avo	-15059
▁mln	-15060
inart	-15061
issue	-15062
itage	-15063
ixing	-15064
olese	-15065
quest	-15066
venge	-15067
▁Conc	-15068
▁Fein	-15069
▁Fine	-15070
▁Gonz	-15071
▁Icel	-15072
▁MPAA	-15073
▁Meas	-15074
▁NetS	-15075
▁Veer	-15076
▁bite	-15077
▁buck	-15078
▁cand	-15079
▁dire	-15080
▁dise	-15081
▁mall	-15082
▁merc	-15083
▁pile	-15084
COUVER	-15085
enched	-15086
second	-15087
terson	-15088
▁Assam	-15089
▁Boise	-15090
▁Flaws	-15091
▁Glenn	-15092
▁Pixar	-15093
▁Plays	-15094
▁Warne	-15095
▁Works	-15096
▁deser	-15097
▁fares	-15098
▁fiber	-15099
▁grave	-15100
▁motiv	-15101
▁rooms	-15102
▁shoes	-15103
▁tying	-15104
atement	-15105
urchase	-15106
▁Arabic	-15107
▁Finish	-15108
▁Hudson	-15109
▁Inside	-15110
▁Reject	-15111
▁Rubens	-15112
▁Turner	-15113
▁Walter	-15114
▁Werder	-15115
▁apprec	-15116
▁argued	-15117
▁braced	-15118
▁clutch	-15119
[...]
